<tensorflow.python.training.saver.Saver object at 0x7efb98563d10>
[name: "Placeholder"
op: "Placeholder"
attr {
  key: "dtype"
  value {
    type: DT_FLOAT
  }
}
attr {
  key: "shape"
  value {
    shape {
      dim {
        size: 20
      }
      dim {
        size: 9
      }
      dim {
        size: 22
      }
    }
  }
}
, name: "Placeholder_1"
op: "Placeholder"
attr {
  key: "dtype"
  value {
    type: DT_FLOAT
  }
}
attr {
  key: "shape"
  value {
    shape {
      dim {
        size: 20
      }
      dim {
        size: 9
      }
      dim {
        size: 1
      }
    }
  }
}
, name: "Placeholder_2"
op: "Placeholder"
attr {
  key: "dtype"
  value {
    type: DT_FLOAT
  }
}
attr {
  key: "shape"
  value {
    shape {
      dim {
        size: 20
      }
      dim {
        size: 9
      }
      dim {
        size: 9
      }
      dim {
        size: 10
      }
    }
  }
}
, name: "Placeholder_3"
op: "Placeholder"
attr {
  key: "dtype"
  value {
    type: DT_FLOAT
  }
}
attr {
  key: "shape"
  value {
    shape {
      dim {
        size: 20
      }
      dim {
        size: 9
      }
      dim {
        size: 3
      }
    }
  }
}
, name: "pos_to_proximity/ExpandDims/dim"
op: "Const"
attr {
  key: "dtype"
  value {
    type: DT_INT32
  }
}
attr {
  key: "value"
  value {
    tensor {
      dtype: DT_INT32
      tensor_shape {
      }
      int_val: 2
    }
  }
}
, name: "pos_to_proximity/ExpandDims"
op: "ExpandDims"
input: "Placeholder_3"
input: "pos_to_proximity/ExpandDims/dim"
attr {
  key: "T"
  value {
    type: DT_FLOAT
  }
}
attr {
  key: "Tdim"
  value {
    type: DT_INT32
  }
}
, name: "pos_to_proximity/ExpandDims_1/dim"
op: "Const"
attr {
  key: "dtype"
  value {
    type: DT_INT32
  }
}
attr {
  key: "value"
  value {
    tensor {
      dtype: DT_INT32
      tensor_shape {
      }
      int_val: 1
    }
  }
}
, name: "pos_to_proximity/ExpandDims_1"
op: "ExpandDims"
input: "Placeholder_3"
input: "pos_to_proximity/ExpandDims_1/dim"
attr {
  key: "T"
  value {
    type: DT_FLOAT
  }
}
attr {
  key: "Tdim"
  value {
    type: DT_INT32
  }
}
, name: "pos_to_proximity/Sub"
op: "Sub"
input: "pos_to_proximity/ExpandDims"
input: "pos_to_proximity/ExpandDims_1"
attr {
  key: "T"
  value {
    type: DT_FLOAT
  }
}
, name: "pos_to_proximity/Square"
op: "Square"
input: "pos_to_proximity/Sub"
attr {
  key: "T"
  value {
    type: DT_FLOAT
  }
}
, name: "pos_to_proximity/Sum/reduction_indices"
op: "Const"
attr {
  key: "dtype"
  value {
    type: DT_INT32
  }
}
attr {
  key: "value"
  value {
    tensor {
      dtype: DT_INT32
      tensor_shape {
      }
      int_val: 3
    }
  }
}
, name: "pos_to_proximity/Sum"
op: "Sum"
input: "pos_to_proximity/Square"
input: "pos_to_proximity/Sum/reduction_indices"
attr {
  key: "T"
  value {
    type: DT_FLOAT
  }
}
attr {
  key: "Tidx"
  value {
    type: DT_INT32
  }
}
attr {
  key: "keep_dims"
  value {
    b: false
  }
}
, name: "pos_to_proximity/add/y"
op: "Const"
attr {
  key: "dtype"
  value {
    type: DT_FLOAT
  }
}
attr {
  key: "value"
  value {
    tensor {
      dtype: DT_FLOAT
      tensor_shape {
      }
      float_val: 9.999999747378752e-06
    }
  }
}
, name: "pos_to_proximity/add"
op: "Add"
input: "pos_to_proximity/Sum"
input: "pos_to_proximity/add/y"
attr {
  key: "T"
  value {
    type: DT_FLOAT
  }
}
, name: "pos_to_proximity/Sqrt"
op: "Sqrt"
input: "pos_to_proximity/add"
attr {
  key: "T"
  value {
    type: DT_FLOAT
  }
}
, name: "pos_to_proximity/Reshape/shape"
op: "Const"
attr {
  key: "dtype"
  value {
    type: DT_INT32
  }
}
attr {
  key: "value"
  value {
    tensor {
      dtype: DT_INT32
      tensor_shape {
        dim {
          size: 3
        }
      }
      tensor_content: "\024\000\000\000\t\000\000\000\t\000\000\000"
    }
  }
}
, name: "pos_to_proximity/Reshape"
op: "Reshape"
input: "pos_to_proximity/Sqrt"
input: "pos_to_proximity/Reshape/shape"
attr {
  key: "T"
  value {
    type: DT_FLOAT
  }
}
attr {
  key: "Tshape"
  value {
    type: DT_INT32
  }
}
, name: "pos_to_proximity/Mul"
op: "Mul"
input: "pos_to_proximity/Reshape"
input: "Placeholder_1"
attr {
  key: "T"
  value {
    type: DT_FLOAT
  }
}
, name: "pos_to_proximity/transpose/perm"
op: "Const"
attr {
  key: "dtype"
  value {
    type: DT_INT32
  }
}
attr {
  key: "value"
  value {
    tensor {
      dtype: DT_INT32
      tensor_shape {
        dim {
          size: 3
        }
      }
      tensor_content: "\000\000\000\000\002\000\000\000\001\000\000\000"
    }
  }
}
, name: "pos_to_proximity/transpose"
op: "Transpose"
input: "Placeholder_1"
input: "pos_to_proximity/transpose/perm"
attr {
  key: "T"
  value {
    type: DT_FLOAT
  }
}
attr {
  key: "Tperm"
  value {
    type: DT_INT32
  }
}
, name: "pos_to_proximity/Mul_1"
op: "Mul"
input: "pos_to_proximity/Mul"
input: "pos_to_proximity/transpose"
attr {
  key: "T"
  value {
    type: DT_FLOAT
  }
}
, name: "pos_to_proximity/MatrixSetDiag/diagonal"
op: "Const"
attr {
  key: "dtype"
  value {
    type: DT_FLOAT
  }
}
attr {
  key: "value"
  value {
    tensor {
      dtype: DT_FLOAT
      tensor_shape {
        dim {
          size: 20
        }
        dim {
          size: 9
        }
      }
      tensor_content: "\000\000\000\000\000\000\000\000\000\000\000\000\000\000\000\000\000\000\000\000\000\000\000\000\000\000\000\000\000\000\000\000\000\000\000\000\000\000\000\000\000\000\000\000\000\000\000\000\000\000\000\000\000\000\000\000\000\000\000\000\000\000\000\000\000\000\000\000\000\000\000\000\000\000\000\000\000\000\000\000\000\000\000\000\000\000\000\000\000\000\000\000\000\000\000\000\000\000\000\000\000\000\000\000\000\000\000\000\000\000\000\000\000\000\000\000\000\000\000\000\000\000\000\000\000\000\000\000\000\000\000\000\000\000\000\000\000\000\000\000\000\000\000\000\000\000\000\000\000\000\000\000\000\000\000\000\000\000\000\000\000\000\000\000\000\000\000\000\000\000\000\000\000\000\000\000\000\000\000\000\000\000\000\000\000\000\000\000\000\000\000\000\000\000\000\000\000\000\000\000\000\000\000\000\000\000\000\000\000\000\000\000\000\000\000\000\000\000\000\000\000\000\000\000\000\000\000\000\000\000\000\000\000\000\000\000\000\000\000\000\000\000\000\000\000\000\000\000\000\000\000\000\000\000\000\000\000\000\000\000\000\000\000\000\000\000\000\000\000\000\000\000\000\000\000\000\000\000\000\000\000\000\000\000\000\000\000\000\000\000\000\000\000\000\000\000\000\000\000\000\000\000\000\000\000\000\000\000\000\000\000\000\000\000\000\000\000\000\000\000\000\000\000\000\000\000\000\000\000\000\000\000\000\000\000\000\000\000\000\000\000\000\000\000\000\000\000\000\000\000\000\000\000\000\000\000\000\000\000\000\000\000\000\000\000\000\000\000\000\000\000\000\000\000\000\000\000\000\000\000\000\000\000\000\000\000\000\000\000\000\000\000\000\000\000\000\000\000\000\000\000\000\000\000\000\000\000\000\000\000\000\000\000\000\000\000\000\000\000\000\000\000\000\000\000\000\000\000\000\000\000\000\000\000\000\000\000\000\000\000\000\000\000\000\000\000\000\000\000\000\000\000\000\000\000\000\000\000\000\000\000\000\000\000\000\000\000\000\000\000\000\000\000\000\000\000\000\000\000\000\000\000\000\000\000\000\000\000\000\000\000\000\000\000\000\000\000\000\000\000\000\000\000\000\000\000\000\000\000\000\000\000\000\000\000\000\000\000\000\000\000\000\000\000\000\000\000\000\000\000\000\000\000\000\000\000\000\000\000\000\000\000\000\000\000\000\000\000\000\000\000\000\000\000\000\000\000\000\000\000\000\000\000\000\000\000\000\000\000\000\000\000\000\000\000\000\000\000\000\000\000\000\000\000\000\000\000\000\000\000\000\000\000\000\000\000\000\000\000\000\000\000\000\000\000\000\000\000\000\000\000\000\000\000\000\000\000\000\000\000\000\000\000\000\000\000\000\000\000\000\000\000\000\000\000\000\000\000\000\000\000\000\000\000\000\000\000\000\000\000\000\000\000\000\000\000\000\000\000\000\000\000\000\000\000\000\000\000\000\000\000\000\000\000\000\000\000\000\000\000\000\000\000\000\000\000\000\000\000\000\000\000\000\000\000\000\000\000\000\000\000\000\000\000\000\000\000\000\000\000\000\000\000\000\000\000\000\000\000\000"
    }
  }
}
, name: "pos_to_proximity/MatrixSetDiag"
op: "MatrixSetDiag"
input: "pos_to_proximity/Mul_1"
input: "pos_to_proximity/MatrixSetDiag/diagonal"
attr {
  key: "T"
  value {
    type: DT_FLOAT
  }
}
, name: "Placeholder_4"
op: "Placeholder"
attr {
  key: "dtype"
  value {
    type: DT_FLOAT
  }
}
attr {
  key: "shape"
  value {
    shape {
      dim {
        size: 20
      }
      dim {
        size: 9
      }
      dim {
        size: 9
      }
    }
  }
}
, name: "Placeholder_5"
op: "Placeholder"
attr {
  key: "dtype"
  value {
    type: DT_BOOL
  }
}
attr {
  key: "shape"
  value {
    shape {
      unknown_rank: true
    }
  }
}
, name: "transpose/perm"
op: "Const"
attr {
  key: "dtype"
  value {
    type: DT_INT32
  }
}
attr {
  key: "value"
  value {
    tensor {
      dtype: DT_INT32
      tensor_shape {
        dim {
          size: 3
        }
      }
      tensor_content: "\000\000\000\000\002\000\000\000\001\000\000\000"
    }
  }
}
, name: "transpose"
op: "Transpose"
input: "Placeholder_1"
input: "transpose/perm"
attr {
  key: "T"
  value {
    type: DT_FLOAT
  }
}
attr {
  key: "Tperm"
  value {
    type: DT_INT32
  }
}
, name: "Sum/reduction_indices"
op: "Const"
attr {
  key: "dtype"
  value {
    type: DT_INT32
  }
}
attr {
  key: "value"
  value {
    tensor {
      dtype: DT_INT32
      tensor_shape {
      }
      int_val: 2
    }
  }
}
, name: "Sum"
op: "Sum"
input: "transpose"
input: "Sum/reduction_indices"
attr {
  key: "T"
  value {
    type: DT_FLOAT
  }
}
attr {
  key: "Tidx"
  value {
    type: DT_INT32
  }
}
attr {
  key: "keep_dims"
  value {
    b: false
  }
}
, name: "Reshape/shape"
op: "Const"
attr {
  key: "dtype"
  value {
    type: DT_INT32
  }
}
attr {
  key: "value"
  value {
    tensor {
      dtype: DT_INT32
      tensor_shape {
        dim {
          size: 2
        }
      }
      tensor_content: "\264\000\000\000\026\000\000\000"
    }
  }
}
, name: "Reshape"
op: "Reshape"
input: "Placeholder"
input: "Reshape/shape"
attr {
  key: "T"
  value {
    type: DT_FLOAT
  }
}
attr {
  key: "Tshape"
  value {
    type: DT_INT32
  }
}
, name: "dense/kernel/Initializer/random_uniform/shape"
op: "Const"
attr {
  key: "_class"
  value {
    list {
      s: "loc:@dense/kernel"
    }
  }
}
attr {
  key: "dtype"
  value {
    type: DT_INT32
  }
}
attr {
  key: "value"
  value {
    tensor {
      dtype: DT_INT32
      tensor_shape {
        dim {
          size: 2
        }
      }
      tensor_content: "\026\000\000\0002\000\000\000"
    }
  }
}
, name: "dense/kernel/Initializer/random_uniform/min"
op: "Const"
attr {
  key: "_class"
  value {
    list {
      s: "loc:@dense/kernel"
    }
  }
}
attr {
  key: "dtype"
  value {
    type: DT_FLOAT
  }
}
attr {
  key: "value"
  value {
    tensor {
      dtype: DT_FLOAT
      tensor_shape {
      }
      float_val: -0.28867512941360474
    }
  }
}
, name: "dense/kernel/Initializer/random_uniform/max"
op: "Const"
attr {
  key: "_class"
  value {
    list {
      s: "loc:@dense/kernel"
    }
  }
}
attr {
  key: "dtype"
  value {
    type: DT_FLOAT
  }
}
attr {
  key: "value"
  value {
    tensor {
      dtype: DT_FLOAT
      tensor_shape {
      }
      float_val: 0.28867512941360474
    }
  }
}
, name: "dense/kernel/Initializer/random_uniform/RandomUniform"
op: "RandomUniform"
input: "dense/kernel/Initializer/random_uniform/shape"
attr {
  key: "T"
  value {
    type: DT_INT32
  }
}
attr {
  key: "_class"
  value {
    list {
      s: "loc:@dense/kernel"
    }
  }
}
attr {
  key: "dtype"
  value {
    type: DT_FLOAT
  }
}
attr {
  key: "seed"
  value {
    i: 1334
  }
}
attr {
  key: "seed2"
  value {
    i: 34
  }
}
, name: "dense/kernel/Initializer/random_uniform/sub"
op: "Sub"
input: "dense/kernel/Initializer/random_uniform/max"
input: "dense/kernel/Initializer/random_uniform/min"
attr {
  key: "T"
  value {
    type: DT_FLOAT
  }
}
attr {
  key: "_class"
  value {
    list {
      s: "loc:@dense/kernel"
    }
  }
}
, name: "dense/kernel/Initializer/random_uniform/mul"
op: "Mul"
input: "dense/kernel/Initializer/random_uniform/RandomUniform"
input: "dense/kernel/Initializer/random_uniform/sub"
attr {
  key: "T"
  value {
    type: DT_FLOAT
  }
}
attr {
  key: "_class"
  value {
    list {
      s: "loc:@dense/kernel"
    }
  }
}
, name: "dense/kernel/Initializer/random_uniform"
op: "Add"
input: "dense/kernel/Initializer/random_uniform/mul"
input: "dense/kernel/Initializer/random_uniform/min"
attr {
  key: "T"
  value {
    type: DT_FLOAT
  }
}
attr {
  key: "_class"
  value {
    list {
      s: "loc:@dense/kernel"
    }
  }
}
, name: "dense/kernel"
op: "VariableV2"
attr {
  key: "_class"
  value {
    list {
      s: "loc:@dense/kernel"
    }
  }
}
attr {
  key: "container"
  value {
    s: ""
  }
}
attr {
  key: "dtype"
  value {
    type: DT_FLOAT
  }
}
attr {
  key: "shape"
  value {
    shape {
      dim {
        size: 22
      }
      dim {
        size: 50
      }
    }
  }
}
attr {
  key: "shared_name"
  value {
    s: ""
  }
}
, name: "dense/kernel/Assign"
op: "Assign"
input: "dense/kernel"
input: "dense/kernel/Initializer/random_uniform"
attr {
  key: "T"
  value {
    type: DT_FLOAT
  }
}
attr {
  key: "_class"
  value {
    list {
      s: "loc:@dense/kernel"
    }
  }
}
attr {
  key: "use_locking"
  value {
    b: true
  }
}
attr {
  key: "validate_shape"
  value {
    b: true
  }
}
, name: "dense/kernel/read"
op: "Identity"
input: "dense/kernel"
attr {
  key: "T"
  value {
    type: DT_FLOAT
  }
}
attr {
  key: "_class"
  value {
    list {
      s: "loc:@dense/kernel"
    }
  }
}
, name: "dense/bias/Initializer/zeros"
op: "Const"
attr {
  key: "_class"
  value {
    list {
      s: "loc:@dense/bias"
    }
  }
}
attr {
  key: "dtype"
  value {
    type: DT_FLOAT
  }
}
attr {
  key: "value"
  value {
    tensor {
      dtype: DT_FLOAT
      tensor_shape {
        dim {
          size: 50
        }
      }
      float_val: 0.0
    }
  }
}
, name: "dense/bias"
op: "VariableV2"
attr {
  key: "_class"
  value {
    list {
      s: "loc:@dense/bias"
    }
  }
}
attr {
  key: "container"
  value {
    s: ""
  }
}
attr {
  key: "dtype"
  value {
    type: DT_FLOAT
  }
}
attr {
  key: "shape"
  value {
    shape {
      dim {
        size: 50
      }
    }
  }
}
attr {
  key: "shared_name"
  value {
    s: ""
  }
}
, name: "dense/bias/Assign"
op: "Assign"
input: "dense/bias"
input: "dense/bias/Initializer/zeros"
attr {
  key: "T"
  value {
    type: DT_FLOAT
  }
}
attr {
  key: "_class"
  value {
    list {
      s: "loc:@dense/bias"
    }
  }
}
attr {
  key: "use_locking"
  value {
    b: true
  }
}
attr {
  key: "validate_shape"
  value {
    b: true
  }
}
, name: "dense/bias/read"
op: "Identity"
input: "dense/bias"
attr {
  key: "T"
  value {
    type: DT_FLOAT
  }
}
attr {
  key: "_class"
  value {
    list {
      s: "loc:@dense/bias"
    }
  }
}
, name: "dense/MatMul"
op: "MatMul"
input: "Reshape"
input: "dense/kernel/read"
attr {
  key: "T"
  value {
    type: DT_FLOAT
  }
}
attr {
  key: "transpose_a"
  value {
    b: false
  }
}
attr {
  key: "transpose_b"
  value {
    b: false
  }
}
, name: "dense/BiasAdd"
op: "BiasAdd"
input: "dense/MatMul"
input: "dense/bias/read"
attr {
  key: "T"
  value {
    type: DT_FLOAT
  }
}
attr {
  key: "data_format"
  value {
    s: "NHWC"
  }
}
, name: "dense/Sigmoid"
op: "Sigmoid"
input: "dense/BiasAdd"
attr {
  key: "T"
  value {
    type: DT_FLOAT
  }
}
, name: "dense_1/kernel/Initializer/random_uniform/shape"
op: "Const"
attr {
  key: "_class"
  value {
    list {
      s: "loc:@dense_1/kernel"
    }
  }
}
attr {
  key: "dtype"
  value {
    type: DT_INT32
  }
}
attr {
  key: "value"
  value {
    tensor {
      dtype: DT_INT32
      tensor_shape {
        dim {
          size: 2
        }
      }
      tensor_content: "2\000\000\0002\000\000\000"
    }
  }
}
, name: "dense_1/kernel/Initializer/random_uniform/min"
op: "Const"
attr {
  key: "_class"
  value {
    list {
      s: "loc:@dense_1/kernel"
    }
  }
}
attr {
  key: "dtype"
  value {
    type: DT_FLOAT
  }
}
attr {
  key: "value"
  value {
    tensor {
      dtype: DT_FLOAT
      tensor_shape {
      }
      float_val: -0.24494896829128265
    }
  }
}
, name: "dense_1/kernel/Initializer/random_uniform/max"
op: "Const"
attr {
  key: "_class"
  value {
    list {
      s: "loc:@dense_1/kernel"
    }
  }
}
attr {
  key: "dtype"
  value {
    type: DT_FLOAT
  }
}
attr {
  key: "value"
  value {
    tensor {
      dtype: DT_FLOAT
      tensor_shape {
      }
      float_val: 0.24494896829128265
    }
  }
}
, name: "dense_1/kernel/Initializer/random_uniform/RandomUniform"
op: "RandomUniform"
input: "dense_1/kernel/Initializer/random_uniform/shape"
attr {
  key: "T"
  value {
    type: DT_INT32
  }
}
attr {
  key: "_class"
  value {
    list {
      s: "loc:@dense_1/kernel"
    }
  }
}
attr {
  key: "dtype"
  value {
    type: DT_FLOAT
  }
}
attr {
  key: "seed"
  value {
    i: 1334
  }
}
attr {
  key: "seed2"
  value {
    i: 51
  }
}
, name: "dense_1/kernel/Initializer/random_uniform/sub"
op: "Sub"
input: "dense_1/kernel/Initializer/random_uniform/max"
input: "dense_1/kernel/Initializer/random_uniform/min"
attr {
  key: "T"
  value {
    type: DT_FLOAT
  }
}
attr {
  key: "_class"
  value {
    list {
      s: "loc:@dense_1/kernel"
    }
  }
}
, name: "dense_1/kernel/Initializer/random_uniform/mul"
op: "Mul"
input: "dense_1/kernel/Initializer/random_uniform/RandomUniform"
input: "dense_1/kernel/Initializer/random_uniform/sub"
attr {
  key: "T"
  value {
    type: DT_FLOAT
  }
}
attr {
  key: "_class"
  value {
    list {
      s: "loc:@dense_1/kernel"
    }
  }
}
, name: "dense_1/kernel/Initializer/random_uniform"
op: "Add"
input: "dense_1/kernel/Initializer/random_uniform/mul"
input: "dense_1/kernel/Initializer/random_uniform/min"
attr {
  key: "T"
  value {
    type: DT_FLOAT
  }
}
attr {
  key: "_class"
  value {
    list {
      s: "loc:@dense_1/kernel"
    }
  }
}
, name: "dense_1/kernel"
op: "VariableV2"
attr {
  key: "_class"
  value {
    list {
      s: "loc:@dense_1/kernel"
    }
  }
}
attr {
  key: "container"
  value {
    s: ""
  }
}
attr {
  key: "dtype"
  value {
    type: DT_FLOAT
  }
}
attr {
  key: "shape"
  value {
    shape {
      dim {
        size: 50
      }
      dim {
        size: 50
      }
    }
  }
}
attr {
  key: "shared_name"
  value {
    s: ""
  }
}
, name: "dense_1/kernel/Assign"
op: "Assign"
input: "dense_1/kernel"
input: "dense_1/kernel/Initializer/random_uniform"
attr {
  key: "T"
  value {
    type: DT_FLOAT
  }
}
attr {
  key: "_class"
  value {
    list {
      s: "loc:@dense_1/kernel"
    }
  }
}
attr {
  key: "use_locking"
  value {
    b: true
  }
}
attr {
  key: "validate_shape"
  value {
    b: true
  }
}
, name: "dense_1/kernel/read"
op: "Identity"
input: "dense_1/kernel"
attr {
  key: "T"
  value {
    type: DT_FLOAT
  }
}
attr {
  key: "_class"
  value {
    list {
      s: "loc:@dense_1/kernel"
    }
  }
}
, name: "dense_1/bias/Initializer/zeros"
op: "Const"
attr {
  key: "_class"
  value {
    list {
      s: "loc:@dense_1/bias"
    }
  }
}
attr {
  key: "dtype"
  value {
    type: DT_FLOAT
  }
}
attr {
  key: "value"
  value {
    tensor {
      dtype: DT_FLOAT
      tensor_shape {
        dim {
          size: 50
        }
      }
      float_val: 0.0
    }
  }
}
, name: "dense_1/bias"
op: "VariableV2"
attr {
  key: "_class"
  value {
    list {
      s: "loc:@dense_1/bias"
    }
  }
}
attr {
  key: "container"
  value {
    s: ""
  }
}
attr {
  key: "dtype"
  value {
    type: DT_FLOAT
  }
}
attr {
  key: "shape"
  value {
    shape {
      dim {
        size: 50
      }
    }
  }
}
attr {
  key: "shared_name"
  value {
    s: ""
  }
}
, name: "dense_1/bias/Assign"
op: "Assign"
input: "dense_1/bias"
input: "dense_1/bias/Initializer/zeros"
attr {
  key: "T"
  value {
    type: DT_FLOAT
  }
}
attr {
  key: "_class"
  value {
    list {
      s: "loc:@dense_1/bias"
    }
  }
}
attr {
  key: "use_locking"
  value {
    b: true
  }
}
attr {
  key: "validate_shape"
  value {
    b: true
  }
}
, name: "dense_1/bias/read"
op: "Identity"
input: "dense_1/bias"
attr {
  key: "T"
  value {
    type: DT_FLOAT
  }
}
attr {
  key: "_class"
  value {
    list {
      s: "loc:@dense_1/bias"
    }
  }
}
, name: "dense_1/MatMul"
op: "MatMul"
input: "dense/Sigmoid"
input: "dense_1/kernel/read"
attr {
  key: "T"
  value {
    type: DT_FLOAT
  }
}
attr {
  key: "transpose_a"
  value {
    b: false
  }
}
attr {
  key: "transpose_b"
  value {
    b: false
  }
}
, name: "dense_1/BiasAdd"
op: "BiasAdd"
input: "dense_1/MatMul"
input: "dense_1/bias/read"
attr {
  key: "T"
  value {
    type: DT_FLOAT
  }
}
attr {
  key: "data_format"
  value {
    s: "NHWC"
  }
}
, name: "dense_1/Tanh"
op: "Tanh"
input: "dense_1/BiasAdd"
attr {
  key: "T"
  value {
    type: DT_FLOAT
  }
}
, name: "Reshape_1/shape"
op: "Const"
attr {
  key: "dtype"
  value {
    type: DT_INT32
  }
}
attr {
  key: "value"
  value {
    tensor {
      dtype: DT_INT32
      tensor_shape {
        dim {
          size: 3
        }
      }
      tensor_content: "\024\000\000\000\t\000\000\0002\000\000\000"
    }
  }
}
, name: "Reshape_1"
op: "Reshape"
input: "dense_1/Tanh"
input: "Reshape_1/shape"
attr {
  key: "T"
  value {
    type: DT_FLOAT
  }
}
attr {
  key: "Tshape"
  value {
    type: DT_INT32
  }
}
, name: "Mul"
op: "Mul"
input: "Reshape_1"
input: "Placeholder_1"
attr {
  key: "T"
  value {
    type: DT_FLOAT
  }
}
, name: "Reshape_2/shape"
op: "Const"
attr {
  key: "dtype"
  value {
    type: DT_INT32
  }
}
attr {
  key: "value"
  value {
    tensor {
      dtype: DT_INT32
      tensor_shape {
        dim {
          size: 4
        }
      }
      tensor_content: "\024\000\000\000\001\000\000\000\001\000\000\000\001\000\000\000"
    }
  }
}
, name: "Reshape_2"
op: "Reshape"
input: "Sum"
input: "Reshape_2/shape"
attr {
  key: "T"
  value {
    type: DT_FLOAT
  }
}
attr {
  key: "Tshape"
  value {
    type: DT_INT32
  }
}
, name: "Tile/multiples"
op: "Const"
attr {
  key: "dtype"
  value {
    type: DT_INT32
  }
}
attr {
  key: "value"
  value {
    tensor {
      dtype: DT_INT32
      tensor_shape {
        dim {
          size: 4
        }
      }
      tensor_content: "\001\000\000\000\t\000\000\000\t\000\000\000\001\000\000\000"
    }
  }
}
, name: "Tile"
op: "Tile"
input: "Reshape_2"
input: "Tile/multiples"
attr {
  key: "T"
  value {
    type: DT_FLOAT
  }
}
attr {
  key: "Tmultiples"
  value {
    type: DT_INT32
  }
}
, name: "concat/axis"
op: "Const"
attr {
  key: "dtype"
  value {
    type: DT_INT32
  }
}
attr {
  key: "value"
  value {
    tensor {
      dtype: DT_INT32
      tensor_shape {
      }
      int_val: 3
    }
  }
}
, name: "concat"
op: "ConcatV2"
input: "Placeholder_2"
input: "Tile"
input: "concat/axis"
attr {
  key: "N"
  value {
    i: 2
  }
}
attr {
  key: "T"
  value {
    type: DT_FLOAT
  }
}
attr {
  key: "Tidx"
  value {
    type: DT_INT32
  }
}
, name: "edge_nnpriorZ/Reshape/shape"
op: "Const"
attr {
  key: "dtype"
  value {
    type: DT_INT32
  }
}
attr {
  key: "value"
  value {
    tensor {
      dtype: DT_INT32
      tensor_shape {
        dim {
          size: 2
        }
      }
      tensor_content: "T\006\000\000\013\000\000\000"
    }
  }
}
, name: "edge_nnpriorZ/Reshape"
op: "Reshape"
input: "concat"
input: "edge_nnpriorZ/Reshape/shape"
attr {
  key: "T"
  value {
    type: DT_FLOAT
  }
}
attr {
  key: "Tshape"
  value {
    type: DT_INT32
  }
}
, name: "edge_nnpriorZ/dense/kernel/Initializer/random_uniform/shape"
op: "Const"
attr {
  key: "_class"
  value {
    list {
      s: "loc:@edge_nnpriorZ/dense/kernel"
    }
  }
}
attr {
  key: "dtype"
  value {
    type: DT_INT32
  }
}
attr {
  key: "value"
  value {
    tensor {
      dtype: DT_INT32
      tensor_shape {
        dim {
          size: 2
        }
      }
      tensor_content: "\013\000\000\000d\000\000\000"
    }
  }
}
, name: "edge_nnpriorZ/dense/kernel/Initializer/random_uniform/min"
op: "Const"
attr {
  key: "_class"
  value {
    list {
      s: "loc:@edge_nnpriorZ/dense/kernel"
    }
  }
}
attr {
  key: "dtype"
  value {
    type: DT_FLOAT
  }
}
attr {
  key: "value"
  value {
    tensor {
      dtype: DT_FLOAT
      tensor_shape {
      }
      float_val: -0.2324952781200409
    }
  }
}
, name: "edge_nnpriorZ/dense/kernel/Initializer/random_uniform/max"
op: "Const"
attr {
  key: "_class"
  value {
    list {
      s: "loc:@edge_nnpriorZ/dense/kernel"
    }
  }
}
attr {
  key: "dtype"
  value {
    type: DT_FLOAT
  }
}
attr {
  key: "value"
  value {
    tensor {
      dtype: DT_FLOAT
      tensor_shape {
      }
      float_val: 0.2324952781200409
    }
  }
}
, name: "edge_nnpriorZ/dense/kernel/Initializer/random_uniform/RandomUniform"
op: "RandomUniform"
input: "edge_nnpriorZ/dense/kernel/Initializer/random_uniform/shape"
attr {
  key: "T"
  value {
    type: DT_INT32
  }
}
attr {
  key: "_class"
  value {
    list {
      s: "loc:@edge_nnpriorZ/dense/kernel"
    }
  }
}
attr {
  key: "dtype"
  value {
    type: DT_FLOAT
  }
}
attr {
  key: "seed"
  value {
    i: 1334
  }
}
attr {
  key: "seed2"
  value {
    i: 79
  }
}
, name: "edge_nnpriorZ/dense/kernel/Initializer/random_uniform/sub"
op: "Sub"
input: "edge_nnpriorZ/dense/kernel/Initializer/random_uniform/max"
input: "edge_nnpriorZ/dense/kernel/Initializer/random_uniform/min"
attr {
  key: "T"
  value {
    type: DT_FLOAT
  }
}
attr {
  key: "_class"
  value {
    list {
      s: "loc:@edge_nnpriorZ/dense/kernel"
    }
  }
}
, name: "edge_nnpriorZ/dense/kernel/Initializer/random_uniform/mul"
op: "Mul"
input: "edge_nnpriorZ/dense/kernel/Initializer/random_uniform/RandomUniform"
input: "edge_nnpriorZ/dense/kernel/Initializer/random_uniform/sub"
attr {
  key: "T"
  value {
    type: DT_FLOAT
  }
}
attr {
  key: "_class"
  value {
    list {
      s: "loc:@edge_nnpriorZ/dense/kernel"
    }
  }
}
, name: "edge_nnpriorZ/dense/kernel/Initializer/random_uniform"
op: "Add"
input: "edge_nnpriorZ/dense/kernel/Initializer/random_uniform/mul"
input: "edge_nnpriorZ/dense/kernel/Initializer/random_uniform/min"
attr {
  key: "T"
  value {
    type: DT_FLOAT
  }
}
attr {
  key: "_class"
  value {
    list {
      s: "loc:@edge_nnpriorZ/dense/kernel"
    }
  }
}
, name: "edge_nnpriorZ/dense/kernel"
op: "VariableV2"
attr {
  key: "_class"
  value {
    list {
      s: "loc:@edge_nnpriorZ/dense/kernel"
    }
  }
}
attr {
  key: "container"
  value {
    s: ""
  }
}
attr {
  key: "dtype"
  value {
    type: DT_FLOAT
  }
}
attr {
  key: "shape"
  value {
    shape {
      dim {
        size: 11
      }
      dim {
        size: 100
      }
    }
  }
}
attr {
  key: "shared_name"
  value {
    s: ""
  }
}
, name: "edge_nnpriorZ/dense/kernel/Assign"
op: "Assign"
input: "edge_nnpriorZ/dense/kernel"
input: "edge_nnpriorZ/dense/kernel/Initializer/random_uniform"
attr {
  key: "T"
  value {
    type: DT_FLOAT
  }
}
attr {
  key: "_class"
  value {
    list {
      s: "loc:@edge_nnpriorZ/dense/kernel"
    }
  }
}
attr {
  key: "use_locking"
  value {
    b: true
  }
}
attr {
  key: "validate_shape"
  value {
    b: true
  }
}
, name: "edge_nnpriorZ/dense/kernel/read"
op: "Identity"
input: "edge_nnpriorZ/dense/kernel"
attr {
  key: "T"
  value {
    type: DT_FLOAT
  }
}
attr {
  key: "_class"
  value {
    list {
      s: "loc:@edge_nnpriorZ/dense/kernel"
    }
  }
}
, name: "edge_nnpriorZ/dense/bias/Initializer/zeros"
op: "Const"
attr {
  key: "_class"
  value {
    list {
      s: "loc:@edge_nnpriorZ/dense/bias"
    }
  }
}
attr {
  key: "dtype"
  value {
    type: DT_FLOAT
  }
}
attr {
  key: "value"
  value {
    tensor {
      dtype: DT_FLOAT
      tensor_shape {
        dim {
          size: 100
        }
      }
      float_val: 0.0
    }
  }
}
, name: "edge_nnpriorZ/dense/bias"
op: "VariableV2"
attr {
  key: "_class"
  value {
    list {
      s: "loc:@edge_nnpriorZ/dense/bias"
    }
  }
}
attr {
  key: "container"
  value {
    s: ""
  }
}
attr {
  key: "dtype"
  value {
    type: DT_FLOAT
  }
}
attr {
  key: "shape"
  value {
    shape {
      dim {
        size: 100
      }
    }
  }
}
attr {
  key: "shared_name"
  value {
    s: ""
  }
}
, name: "edge_nnpriorZ/dense/bias/Assign"
op: "Assign"
input: "edge_nnpriorZ/dense/bias"
input: "edge_nnpriorZ/dense/bias/Initializer/zeros"
attr {
  key: "T"
  value {
    type: DT_FLOAT
  }
}
attr {
  key: "_class"
  value {
    list {
      s: "loc:@edge_nnpriorZ/dense/bias"
    }
  }
}
attr {
  key: "use_locking"
  value {
    b: true
  }
}
attr {
  key: "validate_shape"
  value {
    b: true
  }
}
, name: "edge_nnpriorZ/dense/bias/read"
op: "Identity"
input: "edge_nnpriorZ/dense/bias"
attr {
  key: "T"
  value {
    type: DT_FLOAT
  }
}
attr {
  key: "_class"
  value {
    list {
      s: "loc:@edge_nnpriorZ/dense/bias"
    }
  }
}
, name: "edge_nnpriorZ/dense/MatMul"
op: "MatMul"
input: "edge_nnpriorZ/Reshape"
input: "edge_nnpriorZ/dense/kernel/read"
attr {
  key: "T"
  value {
    type: DT_FLOAT
  }
}
attr {
  key: "transpose_a"
  value {
    b: false
  }
}
attr {
  key: "transpose_b"
  value {
    b: false
  }
}
, name: "edge_nnpriorZ/dense/BiasAdd"
op: "BiasAdd"
input: "edge_nnpriorZ/dense/MatMul"
input: "edge_nnpriorZ/dense/bias/read"
attr {
  key: "T"
  value {
    type: DT_FLOAT
  }
}
attr {
  key: "data_format"
  value {
    s: "NHWC"
  }
}
, name: "edge_nnpriorZ/dense/Sigmoid"
op: "Sigmoid"
input: "edge_nnpriorZ/dense/BiasAdd"
attr {
  key: "T"
  value {
    type: DT_FLOAT
  }
}
, name: "edge_nnpriorZ/dense_1/kernel/Initializer/random_uniform/shape"
op: "Const"
attr {
  key: "_class"
  value {
    list {
      s: "loc:@edge_nnpriorZ/dense_1/kernel"
    }
  }
}
attr {
  key: "dtype"
  value {
    type: DT_INT32
  }
}
attr {
  key: "value"
  value {
    tensor {
      dtype: DT_INT32
      tensor_shape {
        dim {
          size: 2
        }
      }
      tensor_content: "d\000\000\000\304\t\000\000"
    }
  }
}
, name: "edge_nnpriorZ/dense_1/kernel/Initializer/random_uniform/min"
op: "Const"
attr {
  key: "_class"
  value {
    list {
      s: "loc:@edge_nnpriorZ/dense_1/kernel"
    }
  }
}
attr {
  key: "dtype"
  value {
    type: DT_FLOAT
  }
}
attr {
  key: "value"
  value {
    tensor {
      dtype: DT_FLOAT
      tensor_shape {
      }
      float_val: -0.04803844541311264
    }
  }
}
, name: "edge_nnpriorZ/dense_1/kernel/Initializer/random_uniform/max"
op: "Const"
attr {
  key: "_class"
  value {
    list {
      s: "loc:@edge_nnpriorZ/dense_1/kernel"
    }
  }
}
attr {
  key: "dtype"
  value {
    type: DT_FLOAT
  }
}
attr {
  key: "value"
  value {
    tensor {
      dtype: DT_FLOAT
      tensor_shape {
      }
      float_val: 0.04803844541311264
    }
  }
}
, name: "edge_nnpriorZ/dense_1/kernel/Initializer/random_uniform/RandomUniform"
op: "RandomUniform"
input: "edge_nnpriorZ/dense_1/kernel/Initializer/random_uniform/shape"
attr {
  key: "T"
  value {
    type: DT_INT32
  }
}
attr {
  key: "_class"
  value {
    list {
      s: "loc:@edge_nnpriorZ/dense_1/kernel"
    }
  }
}
attr {
  key: "dtype"
  value {
    type: DT_FLOAT
  }
}
attr {
  key: "seed"
  value {
    i: 1334
  }
}
attr {
  key: "seed2"
  value {
    i: 96
  }
}
, name: "edge_nnpriorZ/dense_1/kernel/Initializer/random_uniform/sub"
op: "Sub"
input: "edge_nnpriorZ/dense_1/kernel/Initializer/random_uniform/max"
input: "edge_nnpriorZ/dense_1/kernel/Initializer/random_uniform/min"
attr {
  key: "T"
  value {
    type: DT_FLOAT
  }
}
attr {
  key: "_class"
  value {
    list {
      s: "loc:@edge_nnpriorZ/dense_1/kernel"
    }
  }
}
, name: "edge_nnpriorZ/dense_1/kernel/Initializer/random_uniform/mul"
op: "Mul"
input: "edge_nnpriorZ/dense_1/kernel/Initializer/random_uniform/RandomUniform"
input: "edge_nnpriorZ/dense_1/kernel/Initializer/random_uniform/sub"
attr {
  key: "T"
  value {
    type: DT_FLOAT
  }
}
attr {
  key: "_class"
  value {
    list {
      s: "loc:@edge_nnpriorZ/dense_1/kernel"
    }
  }
}
, name: "edge_nnpriorZ/dense_1/kernel/Initializer/random_uniform"
op: "Add"
input: "edge_nnpriorZ/dense_1/kernel/Initializer/random_uniform/mul"
input: "edge_nnpriorZ/dense_1/kernel/Initializer/random_uniform/min"
attr {
  key: "T"
  value {
    type: DT_FLOAT
  }
}
attr {
  key: "_class"
  value {
    list {
      s: "loc:@edge_nnpriorZ/dense_1/kernel"
    }
  }
}
, name: "edge_nnpriorZ/dense_1/kernel"
op: "VariableV2"
attr {
  key: "_class"
  value {
    list {
      s: "loc:@edge_nnpriorZ/dense_1/kernel"
    }
  }
}
attr {
  key: "container"
  value {
    s: ""
  }
}
attr {
  key: "dtype"
  value {
    type: DT_FLOAT
  }
}
attr {
  key: "shape"
  value {
    shape {
      dim {
        size: 100
      }
      dim {
        size: 2500
      }
    }
  }
}
attr {
  key: "shared_name"
  value {
    s: ""
  }
}
, name: "edge_nnpriorZ/dense_1/kernel/Assign"
op: "Assign"
input: "edge_nnpriorZ/dense_1/kernel"
input: "edge_nnpriorZ/dense_1/kernel/Initializer/random_uniform"
attr {
  key: "T"
  value {
    type: DT_FLOAT
  }
}
attr {
  key: "_class"
  value {
    list {
      s: "loc:@edge_nnpriorZ/dense_1/kernel"
    }
  }
}
attr {
  key: "use_locking"
  value {
    b: true
  }
}
attr {
  key: "validate_shape"
  value {
    b: true
  }
}
, name: "edge_nnpriorZ/dense_1/kernel/read"
op: "Identity"
input: "edge_nnpriorZ/dense_1/kernel"
attr {
  key: "T"
  value {
    type: DT_FLOAT
  }
}
attr {
  key: "_class"
  value {
    list {
      s: "loc:@edge_nnpriorZ/dense_1/kernel"
    }
  }
}
, name: "edge_nnpriorZ/dense_1/bias/Initializer/zeros/shape_as_tensor"
op: "Const"
attr {
  key: "_class"
  value {
    list {
      s: "loc:@edge_nnpriorZ/dense_1/bias"
    }
  }
}
attr {
  key: "dtype"
  value {
    type: DT_INT32
  }
}
attr {
  key: "value"
  value {
    tensor {
      dtype: DT_INT32
      tensor_shape {
        dim {
          size: 1
        }
      }
      int_val: 2500
    }
  }
}
, name: "edge_nnpriorZ/dense_1/bias/Initializer/zeros/Const"
op: "Const"
attr {
  key: "_class"
  value {
    list {
      s: "loc:@edge_nnpriorZ/dense_1/bias"
    }
  }
}
attr {
  key: "dtype"
  value {
    type: DT_FLOAT
  }
}
attr {
  key: "value"
  value {
    tensor {
      dtype: DT_FLOAT
      tensor_shape {
      }
      float_val: 0.0
    }
  }
}
, name: "edge_nnpriorZ/dense_1/bias/Initializer/zeros"
op: "Fill"
input: "edge_nnpriorZ/dense_1/bias/Initializer/zeros/shape_as_tensor"
input: "edge_nnpriorZ/dense_1/bias/Initializer/zeros/Const"
attr {
  key: "T"
  value {
    type: DT_FLOAT
  }
}
attr {
  key: "_class"
  value {
    list {
      s: "loc:@edge_nnpriorZ/dense_1/bias"
    }
  }
}
attr {
  key: "index_type"
  value {
    type: DT_INT32
  }
}
, name: "edge_nnpriorZ/dense_1/bias"
op: "VariableV2"
attr {
  key: "_class"
  value {
    list {
      s: "loc:@edge_nnpriorZ/dense_1/bias"
    }
  }
}
attr {
  key: "container"
  value {
    s: ""
  }
}
attr {
  key: "dtype"
  value {
    type: DT_FLOAT
  }
}
attr {
  key: "shape"
  value {
    shape {
      dim {
        size: 2500
      }
    }
  }
}
attr {
  key: "shared_name"
  value {
    s: ""
  }
}
, name: "edge_nnpriorZ/dense_1/bias/Assign"
op: "Assign"
input: "edge_nnpriorZ/dense_1/bias"
input: "edge_nnpriorZ/dense_1/bias/Initializer/zeros"
attr {
  key: "T"
  value {
    type: DT_FLOAT
  }
}
attr {
  key: "_class"
  value {
    list {
      s: "loc:@edge_nnpriorZ/dense_1/bias"
    }
  }
}
attr {
  key: "use_locking"
  value {
    b: true
  }
}
attr {
  key: "validate_shape"
  value {
    b: true
  }
}
, name: "edge_nnpriorZ/dense_1/bias/read"
op: "Identity"
input: "edge_nnpriorZ/dense_1/bias"
attr {
  key: "T"
  value {
    type: DT_FLOAT
  }
}
attr {
  key: "_class"
  value {
    list {
      s: "loc:@edge_nnpriorZ/dense_1/bias"
    }
  }
}
, name: "edge_nnpriorZ/dense_1/MatMul"
op: "MatMul"
input: "edge_nnpriorZ/dense/Sigmoid"
input: "edge_nnpriorZ/dense_1/kernel/read"
attr {
  key: "T"
  value {
    type: DT_FLOAT
  }
}
attr {
  key: "transpose_a"
  value {
    b: false
  }
}
attr {
  key: "transpose_b"
  value {
    b: false
  }
}
, name: "edge_nnpriorZ/dense_1/BiasAdd"
op: "BiasAdd"
input: "edge_nnpriorZ/dense_1/MatMul"
input: "edge_nnpriorZ/dense_1/bias/read"
attr {
  key: "T"
  value {
    type: DT_FLOAT
  }
}
attr {
  key: "data_format"
  value {
    s: "NHWC"
  }
}
, name: "edge_nnpriorZ/dense_1/Tanh"
op: "Tanh"
input: "edge_nnpriorZ/dense_1/BiasAdd"
attr {
  key: "T"
  value {
    type: DT_FLOAT
  }
}
, name: "edge_nnpriorZ/Reshape_1/shape"
op: "Const"
attr {
  key: "dtype"
  value {
    type: DT_INT32
  }
}
attr {
  key: "value"
  value {
    tensor {
      dtype: DT_INT32
      tensor_shape {
        dim {
          size: 5
        }
      }
      tensor_content: "\024\000\000\000\t\000\000\000\t\000\000\0002\000\000\0002\000\000\000"
    }
  }
}
, name: "edge_nnpriorZ/Reshape_1"
op: "Reshape"
input: "edge_nnpriorZ/dense_1/Tanh"
input: "edge_nnpriorZ/Reshape_1/shape"
attr {
  key: "T"
  value {
    type: DT_FLOAT
  }
}
attr {
  key: "Tshape"
  value {
    type: DT_INT32
  }
}
, name: "Reshape_3/shape"
op: "Const"
attr {
  key: "dtype"
  value {
    type: DT_INT32
  }
}
attr {
  key: "value"
  value {
    tensor {
      dtype: DT_INT32
      tensor_shape {
        dim {
          size: 3
        }
      }
      tensor_content: "\264\000\000\000\302\001\000\0002\000\000\000"
    }
  }
}
, name: "Reshape_3"
op: "Reshape"
input: "edge_nnpriorZ/Reshape_1"
input: "Reshape_3/shape"
attr {
  key: "T"
  value {
    type: DT_FLOAT
  }
}
attr {
  key: "Tshape"
  value {
    type: DT_INT32
  }
}
, name: "Reshape_4/shape"
op: "Const"
attr {
  key: "dtype"
  value {
    type: DT_INT32
  }
}
attr {
  key: "value"
  value {
    tensor {
      dtype: DT_INT32
      tensor_shape {
        dim {
          size: 3
        }
      }
      tensor_content: "\264\000\000\0002\000\000\000\001\000\000\000"
    }
  }
}
, name: "Reshape_4"
op: "Reshape"
input: "Mul"
input: "Reshape_4/shape"
attr {
  key: "T"
  value {
    type: DT_FLOAT
  }
}
attr {
  key: "Tshape"
  value {
    type: DT_INT32
  }
}
, name: "MatMul"
op: "BatchMatMul"
input: "Reshape_3"
input: "Reshape_4"
attr {
  key: "T"
  value {
    type: DT_FLOAT
  }
}
attr {
  key: "adj_x"
  value {
    b: false
  }
}
attr {
  key: "adj_y"
  value {
    b: false
  }
}
, name: "Reshape_5/shape"
op: "Const"
attr {
  key: "dtype"
  value {
    type: DT_INT32
  }
}
attr {
  key: "value"
  value {
    tensor {
      dtype: DT_INT32
      tensor_shape {
        dim {
          size: 4
        }
      }
      tensor_content: "\024\000\000\000\t\000\000\000\t\000\000\0002\000\000\000"
    }
  }
}
, name: "Reshape_5"
op: "Reshape"
input: "MatMul"
input: "Reshape_5/shape"
attr {
  key: "T"
  value {
    type: DT_FLOAT
  }
}
attr {
  key: "Tshape"
  value {
    type: DT_INT32
  }
}
, name: "transpose_1/perm"
op: "Const"
attr {
  key: "dtype"
  value {
    type: DT_INT32
  }
}
attr {
  key: "value"
  value {
    tensor {
      dtype: DT_INT32
      tensor_shape {
        dim {
          size: 4
        }
      }
      tensor_content: "\000\000\000\000\002\000\000\000\003\000\000\000\001\000\000\000"
    }
  }
}
, name: "transpose_1"
op: "Transpose"
input: "Reshape_5"
input: "transpose_1/perm"
attr {
  key: "T"
  value {
    type: DT_FLOAT
  }
}
attr {
  key: "Tperm"
  value {
    type: DT_INT32
  }
}
, name: "Mean/reduction_indices"
op: "Const"
attr {
  key: "dtype"
  value {
    type: DT_INT32
  }
}
attr {
  key: "value"
  value {
    tensor {
      dtype: DT_INT32
      tensor_shape {
      }
      int_val: 3
    }
  }
}
, name: "Mean"
op: "Mean"
input: "transpose_1"
input: "Mean/reduction_indices"
attr {
  key: "T"
  value {
    type: DT_FLOAT
  }
}
attr {
  key: "Tidx"
  value {
    type: DT_INT32
  }
}
attr {
  key: "keep_dims"
  value {
    b: false
  }
}
, name: "truediv/y"
op: "Const"
attr {
  key: "dtype"
  value {
    type: DT_FLOAT
  }
}
attr {
  key: "value"
  value {
    tensor {
      dtype: DT_FLOAT
      tensor_shape {
      }
      float_val: 9.0
    }
  }
}
, name: "truediv"
op: "RealDiv"
input: "Mean"
input: "truediv/y"
attr {
  key: "T"
  value {
    type: DT_FLOAT
  }
}
, name: "update_GRUpriorZ/Reshape/shape"
op: "Const"
attr {
  key: "dtype"
  value {
    type: DT_INT32
  }
}
attr {
  key: "value"
  value {
    tensor {
      dtype: DT_INT32
      tensor_shape {
        dim {
          size: 3
        }
      }
      tensor_content: "\264\000\000\000\001\000\000\0002\000\000\000"
    }
  }
}
, name: "update_GRUpriorZ/Reshape"
op: "Reshape"
input: "truediv"
input: "update_GRUpriorZ/Reshape/shape"
attr {
  key: "T"
  value {
    type: DT_FLOAT
  }
}
attr {
  key: "Tshape"
  value {
    type: DT_INT32
  }
}
, name: "update_GRUpriorZ/Reshape_1/shape"
op: "Const"
attr {
  key: "dtype"
  value {
    type: DT_INT32
  }
}
attr {
  key: "value"
  value {
    tensor {
      dtype: DT_INT32
      tensor_shape {
        dim {
          size: 2
        }
      }
      tensor_content: "\264\000\000\0002\000\000\000"
    }
  }
}
, name: "update_GRUpriorZ/Reshape_1"
op: "Reshape"
input: "Mul"
input: "update_GRUpriorZ/Reshape_1/shape"
attr {
  key: "T"
  value {
    type: DT_FLOAT
  }
}
attr {
  key: "Tshape"
  value {
    type: DT_INT32
  }
}
, name: "update_GRUpriorZ/rnn/Rank"
op: "Const"
attr {
  key: "dtype"
  value {
    type: DT_INT32
  }
}
attr {
  key: "value"
  value {
    tensor {
      dtype: DT_INT32
      tensor_shape {
      }
      int_val: 3
    }
  }
}
, name: "update_GRUpriorZ/rnn/range/start"
op: "Const"
attr {
  key: "dtype"
  value {
    type: DT_INT32
  }
}
attr {
  key: "value"
  value {
    tensor {
      dtype: DT_INT32
      tensor_shape {
      }
      int_val: 2
    }
  }
}
, name: "update_GRUpriorZ/rnn/range/delta"
op: "Const"
attr {
  key: "dtype"
  value {
    type: DT_INT32
  }
}
attr {
  key: "value"
  value {
    tensor {
      dtype: DT_INT32
      tensor_shape {
      }
      int_val: 1
    }
  }
}
, name: "update_GRUpriorZ/rnn/range"
op: "Range"
input: "update_GRUpriorZ/rnn/range/start"
input: "update_GRUpriorZ/rnn/Rank"
input: "update_GRUpriorZ/rnn/range/delta"
attr {
  key: "Tidx"
  value {
    type: DT_INT32
  }
}
, name: "update_GRUpriorZ/rnn/concat/values_0"
op: "Const"
attr {
  key: "dtype"
  value {
    type: DT_INT32
  }
}
attr {
  key: "value"
  value {
    tensor {
      dtype: DT_INT32
      tensor_shape {
        dim {
          size: 2
        }
      }
      tensor_content: "\001\000\000\000\000\000\000\000"
    }
  }
}
, name: "update_GRUpriorZ/rnn/concat/axis"
op: "Const"
attr {
  key: "dtype"
  value {
    type: DT_INT32
  }
}
attr {
  key: "value"
  value {
    tensor {
      dtype: DT_INT32
      tensor_shape {
      }
      int_val: 0
    }
  }
}
, name: "update_GRUpriorZ/rnn/concat"
op: "ConcatV2"
input: "update_GRUpriorZ/rnn/concat/values_0"
input: "update_GRUpriorZ/rnn/range"
input: "update_GRUpriorZ/rnn/concat/axis"
attr {
  key: "N"
  value {
    i: 2
  }
}
attr {
  key: "T"
  value {
    type: DT_INT32
  }
}
attr {
  key: "Tidx"
  value {
    type: DT_INT32
  }
}
, name: "update_GRUpriorZ/rnn/transpose"
op: "Transpose"
input: "update_GRUpriorZ/Reshape"
input: "update_GRUpriorZ/rnn/concat"
attr {
  key: "T"
  value {
    type: DT_FLOAT
  }
}
attr {
  key: "Tperm"
  value {
    type: DT_INT32
  }
}
, name: "update_GRUpriorZ/rnn/Shape"
op: "Const"
attr {
  key: "dtype"
  value {
    type: DT_INT32
  }
}
attr {
  key: "value"
  value {
    tensor {
      dtype: DT_INT32
      tensor_shape {
        dim {
          size: 3
        }
      }
      tensor_content: "\001\000\000\000\264\000\000\0002\000\000\000"
    }
  }
}
, name: "update_GRUpriorZ/rnn/strided_slice/stack"
op: "Const"
attr {
  key: "dtype"
  value {
    type: DT_INT32
  }
}
attr {
  key: "value"
  value {
    tensor {
      dtype: DT_INT32
      tensor_shape {
        dim {
          size: 1
        }
      }
      int_val: 0
    }
  }
}
, name: "update_GRUpriorZ/rnn/strided_slice/stack_1"
op: "Const"
attr {
  key: "dtype"
  value {
    type: DT_INT32
  }
}
attr {
  key: "value"
  value {
    tensor {
      dtype: DT_INT32
      tensor_shape {
        dim {
          size: 1
        }
      }
      int_val: 1
    }
  }
}
, name: "update_GRUpriorZ/rnn/strided_slice/stack_2"
op: "Const"
attr {
  key: "dtype"
  value {
    type: DT_INT32
  }
}
attr {
  key: "value"
  value {
    tensor {
      dtype: DT_INT32
      tensor_shape {
        dim {
          size: 1
        }
      }
      int_val: 1
    }
  }
}
, name: "update_GRUpriorZ/rnn/strided_slice"
op: "StridedSlice"
input: "update_GRUpriorZ/rnn/Shape"
input: "update_GRUpriorZ/rnn/strided_slice/stack"
input: "update_GRUpriorZ/rnn/strided_slice/stack_1"
input: "update_GRUpriorZ/rnn/strided_slice/stack_2"
attr {
  key: "Index"
  value {
    type: DT_INT32
  }
}
attr {
  key: "T"
  value {
    type: DT_INT32
  }
}
attr {
  key: "begin_mask"
  value {
    i: 0
  }
}
attr {
  key: "ellipsis_mask"
  value {
    i: 0
  }
}
attr {
  key: "end_mask"
  value {
    i: 0
  }
}
attr {
  key: "new_axis_mask"
  value {
    i: 0
  }
}
attr {
  key: "shrink_axis_mask"
  value {
    i: 1
  }
}
, name: "update_GRUpriorZ/rnn/Const"
op: "Const"
attr {
  key: "dtype"
  value {
    type: DT_INT32
  }
}
attr {
  key: "value"
  value {
    tensor {
      dtype: DT_INT32
      tensor_shape {
        dim {
          size: 1
        }
      }
      int_val: 180
    }
  }
}
, name: "update_GRUpriorZ/rnn/Const_1"
op: "Const"
attr {
  key: "dtype"
  value {
    type: DT_INT32
  }
}
attr {
  key: "value"
  value {
    tensor {
      dtype: DT_INT32
      tensor_shape {
        dim {
          size: 1
        }
      }
      int_val: 50
    }
  }
}
, name: "update_GRUpriorZ/rnn/concat_1/axis"
op: "Const"
attr {
  key: "dtype"
  value {
    type: DT_INT32
  }
}
attr {
  key: "value"
  value {
    tensor {
      dtype: DT_INT32
      tensor_shape {
      }
      int_val: 0
    }
  }
}
, name: "update_GRUpriorZ/rnn/concat_1"
op: "ConcatV2"
input: "update_GRUpriorZ/rnn/Const"
input: "update_GRUpriorZ/rnn/Const_1"
input: "update_GRUpriorZ/rnn/concat_1/axis"
attr {
  key: "N"
  value {
    i: 2
  }
}
attr {
  key: "T"
  value {
    type: DT_INT32
  }
}
attr {
  key: "Tidx"
  value {
    type: DT_INT32
  }
}
, name: "update_GRUpriorZ/rnn/zeros/Const"
op: "Const"
attr {
  key: "dtype"
  value {
    type: DT_FLOAT
  }
}
attr {
  key: "value"
  value {
    tensor {
      dtype: DT_FLOAT
      tensor_shape {
      }
      float_val: 0.0
    }
  }
}
, name: "update_GRUpriorZ/rnn/zeros"
op: "Fill"
input: "update_GRUpriorZ/rnn/concat_1"
input: "update_GRUpriorZ/rnn/zeros/Const"
attr {
  key: "T"
  value {
    type: DT_FLOAT
  }
}
attr {
  key: "index_type"
  value {
    type: DT_INT32
  }
}
, name: "update_GRUpriorZ/rnn/time"
op: "Const"
attr {
  key: "dtype"
  value {
    type: DT_INT32
  }
}
attr {
  key: "value"
  value {
    tensor {
      dtype: DT_INT32
      tensor_shape {
      }
      int_val: 0
    }
  }
}
, name: "update_GRUpriorZ/rnn/TensorArray"
op: "TensorArrayV3"
input: "update_GRUpriorZ/rnn/strided_slice"
attr {
  key: "clear_after_read"
  value {
    b: true
  }
}
attr {
  key: "dtype"
  value {
    type: DT_FLOAT
  }
}
attr {
  key: "dynamic_size"
  value {
    b: false
  }
}
attr {
  key: "element_shape"
  value {
    shape {
      dim {
        size: 180
      }
      dim {
        size: 50
      }
    }
  }
}
attr {
  key: "identical_element_shapes"
  value {
    b: true
  }
}
attr {
  key: "tensor_array_name"
  value {
    s: "update_GRUpriorZ/rnn/dynamic_rnn/output_0"
  }
}
, name: "update_GRUpriorZ/rnn/TensorArray_1"
op: "TensorArrayV3"
input: "update_GRUpriorZ/rnn/strided_slice"
attr {
  key: "clear_after_read"
  value {
    b: true
  }
}
attr {
  key: "dtype"
  value {
    type: DT_FLOAT
  }
}
attr {
  key: "dynamic_size"
  value {
    b: false
  }
}
attr {
  key: "element_shape"
  value {
    shape {
      dim {
        size: 180
      }
      dim {
        size: 50
      }
    }
  }
}
attr {
  key: "identical_element_shapes"
  value {
    b: true
  }
}
attr {
  key: "tensor_array_name"
  value {
    s: "update_GRUpriorZ/rnn/dynamic_rnn/input_0"
  }
}
, name: "update_GRUpriorZ/rnn/TensorArrayUnstack/Shape"
op: "Const"
attr {
  key: "dtype"
  value {
    type: DT_INT32
  }
}
attr {
  key: "value"
  value {
    tensor {
      dtype: DT_INT32
      tensor_shape {
        dim {
          size: 3
        }
      }
      tensor_content: "\001\000\000\000\264\000\000\0002\000\000\000"
    }
  }
}
, name: "update_GRUpriorZ/rnn/TensorArrayUnstack/strided_slice/stack"
op: "Const"
attr {
  key: "dtype"
  value {
    type: DT_INT32
  }
}
attr {
  key: "value"
  value {
    tensor {
      dtype: DT_INT32
      tensor_shape {
        dim {
          size: 1
        }
      }
      int_val: 0
    }
  }
}
, name: "update_GRUpriorZ/rnn/TensorArrayUnstack/strided_slice/stack_1"
op: "Const"
attr {
  key: "dtype"
  value {
    type: DT_INT32
  }
}
attr {
  key: "value"
  value {
    tensor {
      dtype: DT_INT32
      tensor_shape {
        dim {
          size: 1
        }
      }
      int_val: 1
    }
  }
}
, name: "update_GRUpriorZ/rnn/TensorArrayUnstack/strided_slice/stack_2"
op: "Const"
attr {
  key: "dtype"
  value {
    type: DT_INT32
  }
}
attr {
  key: "value"
  value {
    tensor {
      dtype: DT_INT32
      tensor_shape {
        dim {
          size: 1
        }
      }
      int_val: 1
    }
  }
}
, name: "update_GRUpriorZ/rnn/TensorArrayUnstack/strided_slice"
op: "StridedSlice"
input: "update_GRUpriorZ/rnn/TensorArrayUnstack/Shape"
input: "update_GRUpriorZ/rnn/TensorArrayUnstack/strided_slice/stack"
input: "update_GRUpriorZ/rnn/TensorArrayUnstack/strided_slice/stack_1"
input: "update_GRUpriorZ/rnn/TensorArrayUnstack/strided_slice/stack_2"
attr {
  key: "Index"
  value {
    type: DT_INT32
  }
}
attr {
  key: "T"
  value {
    type: DT_INT32
  }
}
attr {
  key: "begin_mask"
  value {
    i: 0
  }
}
attr {
  key: "ellipsis_mask"
  value {
    i: 0
  }
}
attr {
  key: "end_mask"
  value {
    i: 0
  }
}
attr {
  key: "new_axis_mask"
  value {
    i: 0
  }
}
attr {
  key: "shrink_axis_mask"
  value {
    i: 1
  }
}
, name: "update_GRUpriorZ/rnn/TensorArrayUnstack/range/start"
op: "Const"
attr {
  key: "dtype"
  value {
    type: DT_INT32
  }
}
attr {
  key: "value"
  value {
    tensor {
      dtype: DT_INT32
      tensor_shape {
      }
      int_val: 0
    }
  }
}
, name: "update_GRUpriorZ/rnn/TensorArrayUnstack/range/delta"
op: "Const"
attr {
  key: "dtype"
  value {
    type: DT_INT32
  }
}
attr {
  key: "value"
  value {
    tensor {
      dtype: DT_INT32
      tensor_shape {
      }
      int_val: 1
    }
  }
}
, name: "update_GRUpriorZ/rnn/TensorArrayUnstack/range"
op: "Range"
input: "update_GRUpriorZ/rnn/TensorArrayUnstack/range/start"
input: "update_GRUpriorZ/rnn/TensorArrayUnstack/strided_slice"
input: "update_GRUpriorZ/rnn/TensorArrayUnstack/range/delta"
attr {
  key: "Tidx"
  value {
    type: DT_INT32
  }
}
, name: "update_GRUpriorZ/rnn/TensorArrayUnstack/TensorArrayScatter/TensorArrayScatterV3"
op: "TensorArrayScatterV3"
input: "update_GRUpriorZ/rnn/TensorArray_1"
input: "update_GRUpriorZ/rnn/TensorArrayUnstack/range"
input: "update_GRUpriorZ/rnn/transpose"
input: "update_GRUpriorZ/rnn/TensorArray_1:1"
attr {
  key: "T"
  value {
    type: DT_FLOAT
  }
}
attr {
  key: "_class"
  value {
    list {
      s: "loc:@update_GRUpriorZ/rnn/transpose"
    }
  }
}
, name: "update_GRUpriorZ/rnn/Maximum/x"
op: "Const"
attr {
  key: "dtype"
  value {
    type: DT_INT32
  }
}
attr {
  key: "value"
  value {
    tensor {
      dtype: DT_INT32
      tensor_shape {
      }
      int_val: 1
    }
  }
}
, name: "update_GRUpriorZ/rnn/Maximum"
op: "Maximum"
input: "update_GRUpriorZ/rnn/Maximum/x"
input: "update_GRUpriorZ/rnn/strided_slice"
attr {
  key: "T"
  value {
    type: DT_INT32
  }
}
, name: "update_GRUpriorZ/rnn/Minimum"
op: "Minimum"
input: "update_GRUpriorZ/rnn/strided_slice"
input: "update_GRUpriorZ/rnn/Maximum"
attr {
  key: "T"
  value {
    type: DT_INT32
  }
}
, name: "update_GRUpriorZ/rnn/while/iteration_counter"
op: "Const"
attr {
  key: "dtype"
  value {
    type: DT_INT32
  }
}
attr {
  key: "value"
  value {
    tensor {
      dtype: DT_INT32
      tensor_shape {
      }
      int_val: 0
    }
  }
}
, name: "update_GRUpriorZ/rnn/while/Enter"
op: "Enter"
input: "update_GRUpriorZ/rnn/while/iteration_counter"
attr {
  key: "T"
  value {
    type: DT_INT32
  }
}
attr {
  key: "frame_name"
  value {
    s: "update_GRUpriorZ/rnn/while/while_context"
  }
}
attr {
  key: "is_constant"
  value {
    b: false
  }
}
attr {
  key: "parallel_iterations"
  value {
    i: 32
  }
}
, name: "update_GRUpriorZ/rnn/while/Enter_1"
op: "Enter"
input: "update_GRUpriorZ/rnn/time"
attr {
  key: "T"
  value {
    type: DT_INT32
  }
}
attr {
  key: "frame_name"
  value {
    s: "update_GRUpriorZ/rnn/while/while_context"
  }
}
attr {
  key: "is_constant"
  value {
    b: false
  }
}
attr {
  key: "parallel_iterations"
  value {
    i: 32
  }
}
, name: "update_GRUpriorZ/rnn/while/Enter_2"
op: "Enter"
input: "update_GRUpriorZ/rnn/TensorArray:1"
attr {
  key: "T"
  value {
    type: DT_FLOAT
  }
}
attr {
  key: "frame_name"
  value {
    s: "update_GRUpriorZ/rnn/while/while_context"
  }
}
attr {
  key: "is_constant"
  value {
    b: false
  }
}
attr {
  key: "parallel_iterations"
  value {
    i: 32
  }
}
, name: "update_GRUpriorZ/rnn/while/Enter_3"
op: "Enter"
input: "update_GRUpriorZ/Reshape_1"
attr {
  key: "T"
  value {
    type: DT_FLOAT
  }
}
attr {
  key: "frame_name"
  value {
    s: "update_GRUpriorZ/rnn/while/while_context"
  }
}
attr {
  key: "is_constant"
  value {
    b: false
  }
}
attr {
  key: "parallel_iterations"
  value {
    i: 32
  }
}
, name: "update_GRUpriorZ/rnn/while/Merge"
op: "Merge"
input: "update_GRUpriorZ/rnn/while/Enter"
input: "update_GRUpriorZ/rnn/while/NextIteration"
attr {
  key: "N"
  value {
    i: 2
  }
}
attr {
  key: "T"
  value {
    type: DT_INT32
  }
}
, name: "update_GRUpriorZ/rnn/while/Merge_1"
op: "Merge"
input: "update_GRUpriorZ/rnn/while/Enter_1"
input: "update_GRUpriorZ/rnn/while/NextIteration_1"
attr {
  key: "N"
  value {
    i: 2
  }
}
attr {
  key: "T"
  value {
    type: DT_INT32
  }
}
, name: "update_GRUpriorZ/rnn/while/Merge_2"
op: "Merge"
input: "update_GRUpriorZ/rnn/while/Enter_2"
input: "update_GRUpriorZ/rnn/while/NextIteration_2"
attr {
  key: "N"
  value {
    i: 2
  }
}
attr {
  key: "T"
  value {
    type: DT_FLOAT
  }
}
, name: "update_GRUpriorZ/rnn/while/Merge_3"
op: "Merge"
input: "update_GRUpriorZ/rnn/while/Enter_3"
input: "update_GRUpriorZ/rnn/while/NextIteration_3"
attr {
  key: "N"
  value {
    i: 2
  }
}
attr {
  key: "T"
  value {
    type: DT_FLOAT
  }
}
, name: "update_GRUpriorZ/rnn/while/Less/Enter"
op: "Enter"
input: "update_GRUpriorZ/rnn/strided_slice"
attr {
  key: "T"
  value {
    type: DT_INT32
  }
}
attr {
  key: "frame_name"
  value {
    s: "update_GRUpriorZ/rnn/while/while_context"
  }
}
attr {
  key: "is_constant"
  value {
    b: true
  }
}
attr {
  key: "parallel_iterations"
  value {
    i: 32
  }
}
, name: "update_GRUpriorZ/rnn/while/Less"
op: "Less"
input: "update_GRUpriorZ/rnn/while/Merge"
input: "update_GRUpriorZ/rnn/while/Less/Enter"
attr {
  key: "T"
  value {
    type: DT_INT32
  }
}
, name: "update_GRUpriorZ/rnn/while/Less_1/Enter"
op: "Enter"
input: "update_GRUpriorZ/rnn/Minimum"
attr {
  key: "T"
  value {
    type: DT_INT32
  }
}
attr {
  key: "frame_name"
  value {
    s: "update_GRUpriorZ/rnn/while/while_context"
  }
}
attr {
  key: "is_constant"
  value {
    b: true
  }
}
attr {
  key: "parallel_iterations"
  value {
    i: 32
  }
}
, name: "update_GRUpriorZ/rnn/while/Less_1"
op: "Less"
input: "update_GRUpriorZ/rnn/while/Merge_1"
input: "update_GRUpriorZ/rnn/while/Less_1/Enter"
attr {
  key: "T"
  value {
    type: DT_INT32
  }
}
, name: "update_GRUpriorZ/rnn/while/LogicalAnd"
op: "LogicalAnd"
input: "update_GRUpriorZ/rnn/while/Less"
input: "update_GRUpriorZ/rnn/while/Less_1"
, name: "update_GRUpriorZ/rnn/while/LoopCond"
op: "LoopCond"
input: "update_GRUpriorZ/rnn/while/LogicalAnd"
, name: "update_GRUpriorZ/rnn/while/Switch"
op: "Switch"
input: "update_GRUpriorZ/rnn/while/Merge"
input: "update_GRUpriorZ/rnn/while/LoopCond"
attr {
  key: "T"
  value {
    type: DT_INT32
  }
}
attr {
  key: "_class"
  value {
    list {
      s: "loc:@update_GRUpriorZ/rnn/while/Merge"
    }
  }
}
, name: "update_GRUpriorZ/rnn/while/Switch_1"
op: "Switch"
input: "update_GRUpriorZ/rnn/while/Merge_1"
input: "update_GRUpriorZ/rnn/while/LoopCond"
attr {
  key: "T"
  value {
    type: DT_INT32
  }
}
attr {
  key: "_class"
  value {
    list {
      s: "loc:@update_GRUpriorZ/rnn/while/Merge_1"
    }
  }
}
, name: "update_GRUpriorZ/rnn/while/Switch_2"
op: "Switch"
input: "update_GRUpriorZ/rnn/while/Merge_2"
input: "update_GRUpriorZ/rnn/while/LoopCond"
attr {
  key: "T"
  value {
    type: DT_FLOAT
  }
}
attr {
  key: "_class"
  value {
    list {
      s: "loc:@update_GRUpriorZ/rnn/while/Merge_2"
    }
  }
}
, name: "update_GRUpriorZ/rnn/while/Switch_3"
op: "Switch"
input: "update_GRUpriorZ/rnn/while/Merge_3"
input: "update_GRUpriorZ/rnn/while/LoopCond"
attr {
  key: "T"
  value {
    type: DT_FLOAT
  }
}
attr {
  key: "_class"
  value {
    list {
      s: "loc:@update_GRUpriorZ/rnn/while/Merge_3"
    }
  }
}
, name: "update_GRUpriorZ/rnn/while/Identity"
op: "Identity"
input: "update_GRUpriorZ/rnn/while/Switch:1"
attr {
  key: "T"
  value {
    type: DT_INT32
  }
}
, name: "update_GRUpriorZ/rnn/while/Identity_1"
op: "Identity"
input: "update_GRUpriorZ/rnn/while/Switch_1:1"
attr {
  key: "T"
  value {
    type: DT_INT32
  }
}
, name: "update_GRUpriorZ/rnn/while/Identity_2"
op: "Identity"
input: "update_GRUpriorZ/rnn/while/Switch_2:1"
attr {
  key: "T"
  value {
    type: DT_FLOAT
  }
}
, name: "update_GRUpriorZ/rnn/while/Identity_3"
op: "Identity"
input: "update_GRUpriorZ/rnn/while/Switch_3:1"
attr {
  key: "T"
  value {
    type: DT_FLOAT
  }
}
, name: "update_GRUpriorZ/rnn/while/add/y"
op: "Const"
input: "^update_GRUpriorZ/rnn/while/Identity"
attr {
  key: "dtype"
  value {
    type: DT_INT32
  }
}
attr {
  key: "value"
  value {
    tensor {
      dtype: DT_INT32
      tensor_shape {
      }
      int_val: 1
    }
  }
}
, name: "update_GRUpriorZ/rnn/while/add"
op: "Add"
input: "update_GRUpriorZ/rnn/while/Identity"
input: "update_GRUpriorZ/rnn/while/add/y"
attr {
  key: "T"
  value {
    type: DT_INT32
  }
}
, name: "update_GRUpriorZ/rnn/while/TensorArrayReadV3/Enter"
op: "Enter"
input: "update_GRUpriorZ/rnn/TensorArray_1"
attr {
  key: "T"
  value {
    type: DT_RESOURCE
  }
}
attr {
  key: "frame_name"
  value {
    s: "update_GRUpriorZ/rnn/while/while_context"
  }
}
attr {
  key: "is_constant"
  value {
    b: true
  }
}
attr {
  key: "parallel_iterations"
  value {
    i: 32
  }
}
, name: "update_GRUpriorZ/rnn/while/TensorArrayReadV3/Enter_1"
op: "Enter"
input: "update_GRUpriorZ/rnn/TensorArrayUnstack/TensorArrayScatter/TensorArrayScatterV3"
attr {
  key: "T"
  value {
    type: DT_FLOAT
  }
}
attr {
  key: "frame_name"
  value {
    s: "update_GRUpriorZ/rnn/while/while_context"
  }
}
attr {
  key: "is_constant"
  value {
    b: true
  }
}
attr {
  key: "parallel_iterations"
  value {
    i: 32
  }
}
, name: "update_GRUpriorZ/rnn/while/TensorArrayReadV3"
op: "TensorArrayReadV3"
input: "update_GRUpriorZ/rnn/while/TensorArrayReadV3/Enter"
input: "update_GRUpriorZ/rnn/while/Identity_1"
input: "update_GRUpriorZ/rnn/while/TensorArrayReadV3/Enter_1"
attr {
  key: "dtype"
  value {
    type: DT_FLOAT
  }
}
, name: "update_GRUpriorZ/rnn/gru_cell/gates/kernel/Initializer/random_uniform/shape"
op: "Const"
attr {
  key: "_class"
  value {
    list {
      s: "loc:@update_GRUpriorZ/rnn/gru_cell/gates/kernel"
    }
  }
}
attr {
  key: "dtype"
  value {
    type: DT_INT32
  }
}
attr {
  key: "value"
  value {
    tensor {
      dtype: DT_INT32
      tensor_shape {
        dim {
          size: 2
        }
      }
      tensor_content: "d\000\000\000d\000\000\000"
    }
  }
}
, name: "update_GRUpriorZ/rnn/gru_cell/gates/kernel/Initializer/random_uniform/min"
op: "Const"
attr {
  key: "_class"
  value {
    list {
      s: "loc:@update_GRUpriorZ/rnn/gru_cell/gates/kernel"
    }
  }
}
attr {
  key: "dtype"
  value {
    type: DT_FLOAT
  }
}
attr {
  key: "value"
  value {
    tensor {
      dtype: DT_FLOAT
      tensor_shape {
      }
      float_val: -0.17320507764816284
    }
  }
}
, name: "update_GRUpriorZ/rnn/gru_cell/gates/kernel/Initializer/random_uniform/max"
op: "Const"
attr {
  key: "_class"
  value {
    list {
      s: "loc:@update_GRUpriorZ/rnn/gru_cell/gates/kernel"
    }
  }
}
attr {
  key: "dtype"
  value {
    type: DT_FLOAT
  }
}
attr {
  key: "value"
  value {
    tensor {
      dtype: DT_FLOAT
      tensor_shape {
      }
      float_val: 0.17320507764816284
    }
  }
}
, name: "update_GRUpriorZ/rnn/gru_cell/gates/kernel/Initializer/random_uniform/RandomUniform"
op: "RandomUniform"
input: "update_GRUpriorZ/rnn/gru_cell/gates/kernel/Initializer/random_uniform/shape"
attr {
  key: "T"
  value {
    type: DT_INT32
  }
}
attr {
  key: "_class"
  value {
    list {
      s: "loc:@update_GRUpriorZ/rnn/gru_cell/gates/kernel"
    }
  }
}
attr {
  key: "dtype"
  value {
    type: DT_FLOAT
  }
}
attr {
  key: "seed"
  value {
    i: 1334
  }
}
attr {
  key: "seed2"
  value {
    i: 196
  }
}
, name: "update_GRUpriorZ/rnn/gru_cell/gates/kernel/Initializer/random_uniform/sub"
op: "Sub"
input: "update_GRUpriorZ/rnn/gru_cell/gates/kernel/Initializer/random_uniform/max"
input: "update_GRUpriorZ/rnn/gru_cell/gates/kernel/Initializer/random_uniform/min"
attr {
  key: "T"
  value {
    type: DT_FLOAT
  }
}
attr {
  key: "_class"
  value {
    list {
      s: "loc:@update_GRUpriorZ/rnn/gru_cell/gates/kernel"
    }
  }
}
, name: "update_GRUpriorZ/rnn/gru_cell/gates/kernel/Initializer/random_uniform/mul"
op: "Mul"
input: "update_GRUpriorZ/rnn/gru_cell/gates/kernel/Initializer/random_uniform/RandomUniform"
input: "update_GRUpriorZ/rnn/gru_cell/gates/kernel/Initializer/random_uniform/sub"
attr {
  key: "T"
  value {
    type: DT_FLOAT
  }
}
attr {
  key: "_class"
  value {
    list {
      s: "loc:@update_GRUpriorZ/rnn/gru_cell/gates/kernel"
    }
  }
}
, name: "update_GRUpriorZ/rnn/gru_cell/gates/kernel/Initializer/random_uniform"
op: "Add"
input: "update_GRUpriorZ/rnn/gru_cell/gates/kernel/Initializer/random_uniform/mul"
input: "update_GRUpriorZ/rnn/gru_cell/gates/kernel/Initializer/random_uniform/min"
attr {
  key: "T"
  value {
    type: DT_FLOAT
  }
}
attr {
  key: "_class"
  value {
    list {
      s: "loc:@update_GRUpriorZ/rnn/gru_cell/gates/kernel"
    }
  }
}
, name: "update_GRUpriorZ/rnn/gru_cell/gates/kernel"
op: "VariableV2"
attr {
  key: "_class"
  value {
    list {
      s: "loc:@update_GRUpriorZ/rnn/gru_cell/gates/kernel"
    }
  }
}
attr {
  key: "container"
  value {
    s: ""
  }
}
attr {
  key: "dtype"
  value {
    type: DT_FLOAT
  }
}
attr {
  key: "shape"
  value {
    shape {
      dim {
        size: 100
      }
      dim {
        size: 100
      }
    }
  }
}
attr {
  key: "shared_name"
  value {
    s: ""
  }
}
, name: "update_GRUpriorZ/rnn/gru_cell/gates/kernel/Assign"
op: "Assign"
input: "update_GRUpriorZ/rnn/gru_cell/gates/kernel"
input: "update_GRUpriorZ/rnn/gru_cell/gates/kernel/Initializer/random_uniform"
attr {
  key: "T"
  value {
    type: DT_FLOAT
  }
}
attr {
  key: "_class"
  value {
    list {
      s: "loc:@update_GRUpriorZ/rnn/gru_cell/gates/kernel"
    }
  }
}
attr {
  key: "use_locking"
  value {
    b: true
  }
}
attr {
  key: "validate_shape"
  value {
    b: true
  }
}
, name: "update_GRUpriorZ/rnn/gru_cell/gates/kernel/read"
op: "Identity"
input: "update_GRUpriorZ/rnn/gru_cell/gates/kernel"
attr {
  key: "T"
  value {
    type: DT_FLOAT
  }
}
, name: "update_GRUpriorZ/rnn/gru_cell/gates/bias/Initializer/Const"
op: "Const"
attr {
  key: "_class"
  value {
    list {
      s: "loc:@update_GRUpriorZ/rnn/gru_cell/gates/bias"
    }
  }
}
attr {
  key: "dtype"
  value {
    type: DT_FLOAT
  }
}
attr {
  key: "value"
  value {
    tensor {
      dtype: DT_FLOAT
      tensor_shape {
        dim {
          size: 100
        }
      }
      float_val: 1.0
    }
  }
}
, name: "update_GRUpriorZ/rnn/gru_cell/gates/bias"
op: "VariableV2"
attr {
  key: "_class"
  value {
    list {
      s: "loc:@update_GRUpriorZ/rnn/gru_cell/gates/bias"
    }
  }
}
attr {
  key: "container"
  value {
    s: ""
  }
}
attr {
  key: "dtype"
  value {
    type: DT_FLOAT
  }
}
attr {
  key: "shape"
  value {
    shape {
      dim {
        size: 100
      }
    }
  }
}
attr {
  key: "shared_name"
  value {
    s: ""
  }
}
, name: "update_GRUpriorZ/rnn/gru_cell/gates/bias/Assign"
op: "Assign"
input: "update_GRUpriorZ/rnn/gru_cell/gates/bias"
input: "update_GRUpriorZ/rnn/gru_cell/gates/bias/Initializer/Const"
attr {
  key: "T"
  value {
    type: DT_FLOAT
  }
}
attr {
  key: "_class"
  value {
    list {
      s: "loc:@update_GRUpriorZ/rnn/gru_cell/gates/bias"
    }
  }
}
attr {
  key: "use_locking"
  value {
    b: true
  }
}
attr {
  key: "validate_shape"
  value {
    b: true
  }
}
, name: "update_GRUpriorZ/rnn/gru_cell/gates/bias/read"
op: "Identity"
input: "update_GRUpriorZ/rnn/gru_cell/gates/bias"
attr {
  key: "T"
  value {
    type: DT_FLOAT
  }
}
, name: "update_GRUpriorZ/rnn/gru_cell/candidate/kernel/Initializer/random_uniform/shape"
op: "Const"
attr {
  key: "_class"
  value {
    list {
      s: "loc:@update_GRUpriorZ/rnn/gru_cell/candidate/kernel"
    }
  }
}
attr {
  key: "dtype"
  value {
    type: DT_INT32
  }
}
attr {
  key: "value"
  value {
    tensor {
      dtype: DT_INT32
      tensor_shape {
        dim {
          size: 2
        }
      }
      tensor_content: "d\000\000\0002\000\000\000"
    }
  }
}
, name: "update_GRUpriorZ/rnn/gru_cell/candidate/kernel/Initializer/random_uniform/min"
op: "Const"
attr {
  key: "_class"
  value {
    list {
      s: "loc:@update_GRUpriorZ/rnn/gru_cell/candidate/kernel"
    }
  }
}
attr {
  key: "dtype"
  value {
    type: DT_FLOAT
  }
}
attr {
  key: "value"
  value {
    tensor {
      dtype: DT_FLOAT
      tensor_shape {
      }
      float_val: -0.20000000298023224
    }
  }
}
, name: "update_GRUpriorZ/rnn/gru_cell/candidate/kernel/Initializer/random_uniform/max"
op: "Const"
attr {
  key: "_class"
  value {
    list {
      s: "loc:@update_GRUpriorZ/rnn/gru_cell/candidate/kernel"
    }
  }
}
attr {
  key: "dtype"
  value {
    type: DT_FLOAT
  }
}
attr {
  key: "value"
  value {
    tensor {
      dtype: DT_FLOAT
      tensor_shape {
      }
      float_val: 0.20000000298023224
    }
  }
}
, name: "update_GRUpriorZ/rnn/gru_cell/candidate/kernel/Initializer/random_uniform/RandomUniform"
op: "RandomUniform"
input: "update_GRUpriorZ/rnn/gru_cell/candidate/kernel/Initializer/random_uniform/shape"
attr {
  key: "T"
  value {
    type: DT_INT32
  }
}
attr {
  key: "_class"
  value {
    list {
      s: "loc:@update_GRUpriorZ/rnn/gru_cell/candidate/kernel"
    }
  }
}
attr {
  key: "dtype"
  value {
    type: DT_FLOAT
  }
}
attr {
  key: "seed"
  value {
    i: 1334
  }
}
attr {
  key: "seed2"
  value {
    i: 210
  }
}
, name: "update_GRUpriorZ/rnn/gru_cell/candidate/kernel/Initializer/random_uniform/sub"
op: "Sub"
input: "update_GRUpriorZ/rnn/gru_cell/candidate/kernel/Initializer/random_uniform/max"
input: "update_GRUpriorZ/rnn/gru_cell/candidate/kernel/Initializer/random_uniform/min"
attr {
  key: "T"
  value {
    type: DT_FLOAT
  }
}
attr {
  key: "_class"
  value {
    list {
      s: "loc:@update_GRUpriorZ/rnn/gru_cell/candidate/kernel"
    }
  }
}
, name: "update_GRUpriorZ/rnn/gru_cell/candidate/kernel/Initializer/random_uniform/mul"
op: "Mul"
input: "update_GRUpriorZ/rnn/gru_cell/candidate/kernel/Initializer/random_uniform/RandomUniform"
input: "update_GRUpriorZ/rnn/gru_cell/candidate/kernel/Initializer/random_uniform/sub"
attr {
  key: "T"
  value {
    type: DT_FLOAT
  }
}
attr {
  key: "_class"
  value {
    list {
      s: "loc:@update_GRUpriorZ/rnn/gru_cell/candidate/kernel"
    }
  }
}
, name: "update_GRUpriorZ/rnn/gru_cell/candidate/kernel/Initializer/random_uniform"
op: "Add"
input: "update_GRUpriorZ/rnn/gru_cell/candidate/kernel/Initializer/random_uniform/mul"
input: "update_GRUpriorZ/rnn/gru_cell/candidate/kernel/Initializer/random_uniform/min"
attr {
  key: "T"
  value {
    type: DT_FLOAT
  }
}
attr {
  key: "_class"
  value {
    list {
      s: "loc:@update_GRUpriorZ/rnn/gru_cell/candidate/kernel"
    }
  }
}
, name: "update_GRUpriorZ/rnn/gru_cell/candidate/kernel"
op: "VariableV2"
attr {
  key: "_class"
  value {
    list {
      s: "loc:@update_GRUpriorZ/rnn/gru_cell/candidate/kernel"
    }
  }
}
attr {
  key: "container"
  value {
    s: ""
  }
}
attr {
  key: "dtype"
  value {
    type: DT_FLOAT
  }
}
attr {
  key: "shape"
  value {
    shape {
      dim {
        size: 100
      }
      dim {
        size: 50
      }
    }
  }
}
attr {
  key: "shared_name"
  value {
    s: ""
  }
}
, name: "update_GRUpriorZ/rnn/gru_cell/candidate/kernel/Assign"
op: "Assign"
input: "update_GRUpriorZ/rnn/gru_cell/candidate/kernel"
input: "update_GRUpriorZ/rnn/gru_cell/candidate/kernel/Initializer/random_uniform"
attr {
  key: "T"
  value {
    type: DT_FLOAT
  }
}
attr {
  key: "_class"
  value {
    list {
      s: "loc:@update_GRUpriorZ/rnn/gru_cell/candidate/kernel"
    }
  }
}
attr {
  key: "use_locking"
  value {
    b: true
  }
}
attr {
  key: "validate_shape"
  value {
    b: true
  }
}
, name: "update_GRUpriorZ/rnn/gru_cell/candidate/kernel/read"
op: "Identity"
input: "update_GRUpriorZ/rnn/gru_cell/candidate/kernel"
attr {
  key: "T"
  value {
    type: DT_FLOAT
  }
}
, name: "update_GRUpriorZ/rnn/gru_cell/candidate/bias/Initializer/zeros"
op: "Const"
attr {
  key: "_class"
  value {
    list {
      s: "loc:@update_GRUpriorZ/rnn/gru_cell/candidate/bias"
    }
  }
}
attr {
  key: "dtype"
  value {
    type: DT_FLOAT
  }
}
attr {
  key: "value"
  value {
    tensor {
      dtype: DT_FLOAT
      tensor_shape {
        dim {
          size: 50
        }
      }
      float_val: 0.0
    }
  }
}
, name: "update_GRUpriorZ/rnn/gru_cell/candidate/bias"
op: "VariableV2"
attr {
  key: "_class"
  value {
    list {
      s: "loc:@update_GRUpriorZ/rnn/gru_cell/candidate/bias"
    }
  }
}
attr {
  key: "container"
  value {
    s: ""
  }
}
attr {
  key: "dtype"
  value {
    type: DT_FLOAT
  }
}
attr {
  key: "shape"
  value {
    shape {
      dim {
        size: 50
      }
    }
  }
}
attr {
  key: "shared_name"
  value {
    s: ""
  }
}
, name: "update_GRUpriorZ/rnn/gru_cell/candidate/bias/Assign"
op: "Assign"
input: "update_GRUpriorZ/rnn/gru_cell/candidate/bias"
input: "update_GRUpriorZ/rnn/gru_cell/candidate/bias/Initializer/zeros"
attr {
  key: "T"
  value {
    type: DT_FLOAT
  }
}
attr {
  key: "_class"
  value {
    list {
      s: "loc:@update_GRUpriorZ/rnn/gru_cell/candidate/bias"
    }
  }
}
attr {
  key: "use_locking"
  value {
    b: true
  }
}
attr {
  key: "validate_shape"
  value {
    b: true
  }
}
, name: "update_GRUpriorZ/rnn/gru_cell/candidate/bias/read"
op: "Identity"
input: "update_GRUpriorZ/rnn/gru_cell/candidate/bias"
attr {
  key: "T"
  value {
    type: DT_FLOAT
  }
}
, name: "update_GRUpriorZ/rnn/while/gru_cell/concat/axis"
op: "Const"
input: "^update_GRUpriorZ/rnn/while/Identity"
attr {
  key: "dtype"
  value {
    type: DT_INT32
  }
}
attr {
  key: "value"
  value {
    tensor {
      dtype: DT_INT32
      tensor_shape {
      }
      int_val: 1
    }
  }
}
, name: "update_GRUpriorZ/rnn/while/gru_cell/concat"
op: "ConcatV2"
input: "update_GRUpriorZ/rnn/while/TensorArrayReadV3"
input: "update_GRUpriorZ/rnn/while/Identity_3"
input: "update_GRUpriorZ/rnn/while/gru_cell/concat/axis"
attr {
  key: "N"
  value {
    i: 2
  }
}
attr {
  key: "T"
  value {
    type: DT_FLOAT
  }
}
attr {
  key: "Tidx"
  value {
    type: DT_INT32
  }
}
, name: "update_GRUpriorZ/rnn/while/gru_cell/MatMul/Enter"
op: "Enter"
input: "update_GRUpriorZ/rnn/gru_cell/gates/kernel/read"
attr {
  key: "T"
  value {
    type: DT_FLOAT
  }
}
attr {
  key: "frame_name"
  value {
    s: "update_GRUpriorZ/rnn/while/while_context"
  }
}
attr {
  key: "is_constant"
  value {
    b: true
  }
}
attr {
  key: "parallel_iterations"
  value {
    i: 32
  }
}
, name: "update_GRUpriorZ/rnn/while/gru_cell/MatMul"
op: "MatMul"
input: "update_GRUpriorZ/rnn/while/gru_cell/concat"
input: "update_GRUpriorZ/rnn/while/gru_cell/MatMul/Enter"
attr {
  key: "T"
  value {
    type: DT_FLOAT
  }
}
attr {
  key: "transpose_a"
  value {
    b: false
  }
}
attr {
  key: "transpose_b"
  value {
    b: false
  }
}
, name: "update_GRUpriorZ/rnn/while/gru_cell/BiasAdd/Enter"
op: "Enter"
input: "update_GRUpriorZ/rnn/gru_cell/gates/bias/read"
attr {
  key: "T"
  value {
    type: DT_FLOAT
  }
}
attr {
  key: "frame_name"
  value {
    s: "update_GRUpriorZ/rnn/while/while_context"
  }
}
attr {
  key: "is_constant"
  value {
    b: true
  }
}
attr {
  key: "parallel_iterations"
  value {
    i: 32
  }
}
, name: "update_GRUpriorZ/rnn/while/gru_cell/BiasAdd"
op: "BiasAdd"
input: "update_GRUpriorZ/rnn/while/gru_cell/MatMul"
input: "update_GRUpriorZ/rnn/while/gru_cell/BiasAdd/Enter"
attr {
  key: "T"
  value {
    type: DT_FLOAT
  }
}
attr {
  key: "data_format"
  value {
    s: "NHWC"
  }
}
, name: "update_GRUpriorZ/rnn/while/gru_cell/Sigmoid"
op: "Sigmoid"
input: "update_GRUpriorZ/rnn/while/gru_cell/BiasAdd"
attr {
  key: "T"
  value {
    type: DT_FLOAT
  }
}
, name: "update_GRUpriorZ/rnn/while/gru_cell/Const"
op: "Const"
input: "^update_GRUpriorZ/rnn/while/Identity"
attr {
  key: "dtype"
  value {
    type: DT_INT32
  }
}
attr {
  key: "value"
  value {
    tensor {
      dtype: DT_INT32
      tensor_shape {
      }
      int_val: 2
    }
  }
}
, name: "update_GRUpriorZ/rnn/while/gru_cell/split/split_dim"
op: "Const"
input: "^update_GRUpriorZ/rnn/while/Identity"
attr {
  key: "dtype"
  value {
    type: DT_INT32
  }
}
attr {
  key: "value"
  value {
    tensor {
      dtype: DT_INT32
      tensor_shape {
      }
      int_val: 1
    }
  }
}
, name: "update_GRUpriorZ/rnn/while/gru_cell/split"
op: "Split"
input: "update_GRUpriorZ/rnn/while/gru_cell/split/split_dim"
input: "update_GRUpriorZ/rnn/while/gru_cell/Sigmoid"
attr {
  key: "T"
  value {
    type: DT_FLOAT
  }
}
attr {
  key: "num_split"
  value {
    i: 2
  }
}
, name: "update_GRUpriorZ/rnn/while/gru_cell/mul"
op: "Mul"
input: "update_GRUpriorZ/rnn/while/gru_cell/split"
input: "update_GRUpriorZ/rnn/while/Identity_3"
attr {
  key: "T"
  value {
    type: DT_FLOAT
  }
}
, name: "update_GRUpriorZ/rnn/while/gru_cell/concat_1/axis"
op: "Const"
input: "^update_GRUpriorZ/rnn/while/Identity"
attr {
  key: "dtype"
  value {
    type: DT_INT32
  }
}
attr {
  key: "value"
  value {
    tensor {
      dtype: DT_INT32
      tensor_shape {
      }
      int_val: 1
    }
  }
}
, name: "update_GRUpriorZ/rnn/while/gru_cell/concat_1"
op: "ConcatV2"
input: "update_GRUpriorZ/rnn/while/TensorArrayReadV3"
input: "update_GRUpriorZ/rnn/while/gru_cell/mul"
input: "update_GRUpriorZ/rnn/while/gru_cell/concat_1/axis"
attr {
  key: "N"
  value {
    i: 2
  }
}
attr {
  key: "T"
  value {
    type: DT_FLOAT
  }
}
attr {
  key: "Tidx"
  value {
    type: DT_INT32
  }
}
, name: "update_GRUpriorZ/rnn/while/gru_cell/MatMul_1/Enter"
op: "Enter"
input: "update_GRUpriorZ/rnn/gru_cell/candidate/kernel/read"
attr {
  key: "T"
  value {
    type: DT_FLOAT
  }
}
attr {
  key: "frame_name"
  value {
    s: "update_GRUpriorZ/rnn/while/while_context"
  }
}
attr {
  key: "is_constant"
  value {
    b: true
  }
}
attr {
  key: "parallel_iterations"
  value {
    i: 32
  }
}
, name: "update_GRUpriorZ/rnn/while/gru_cell/MatMul_1"
op: "MatMul"
input: "update_GRUpriorZ/rnn/while/gru_cell/concat_1"
input: "update_GRUpriorZ/rnn/while/gru_cell/MatMul_1/Enter"
attr {
  key: "T"
  value {
    type: DT_FLOAT
  }
}
attr {
  key: "transpose_a"
  value {
    b: false
  }
}
attr {
  key: "transpose_b"
  value {
    b: false
  }
}
, name: "update_GRUpriorZ/rnn/while/gru_cell/BiasAdd_1/Enter"
op: "Enter"
input: "update_GRUpriorZ/rnn/gru_cell/candidate/bias/read"
attr {
  key: "T"
  value {
    type: DT_FLOAT
  }
}
attr {
  key: "frame_name"
  value {
    s: "update_GRUpriorZ/rnn/while/while_context"
  }
}
attr {
  key: "is_constant"
  value {
    b: true
  }
}
attr {
  key: "parallel_iterations"
  value {
    i: 32
  }
}
, name: "update_GRUpriorZ/rnn/while/gru_cell/BiasAdd_1"
op: "BiasAdd"
input: "update_GRUpriorZ/rnn/while/gru_cell/MatMul_1"
input: "update_GRUpriorZ/rnn/while/gru_cell/BiasAdd_1/Enter"
attr {
  key: "T"
  value {
    type: DT_FLOAT
  }
}
attr {
  key: "data_format"
  value {
    s: "NHWC"
  }
}
, name: "update_GRUpriorZ/rnn/while/gru_cell/Tanh"
op: "Tanh"
input: "update_GRUpriorZ/rnn/while/gru_cell/BiasAdd_1"
attr {
  key: "T"
  value {
    type: DT_FLOAT
  }
}
, name: "update_GRUpriorZ/rnn/while/gru_cell/mul_1"
op: "Mul"
input: "update_GRUpriorZ/rnn/while/gru_cell/split:1"
input: "update_GRUpriorZ/rnn/while/Identity_3"
attr {
  key: "T"
  value {
    type: DT_FLOAT
  }
}
, name: "update_GRUpriorZ/rnn/while/gru_cell/sub/x"
op: "Const"
input: "^update_GRUpriorZ/rnn/while/Identity"
attr {
  key: "dtype"
  value {
    type: DT_FLOAT
  }
}
attr {
  key: "value"
  value {
    tensor {
      dtype: DT_FLOAT
      tensor_shape {
      }
      float_val: 1.0
    }
  }
}
, name: "update_GRUpriorZ/rnn/while/gru_cell/sub"
op: "Sub"
input: "update_GRUpriorZ/rnn/while/gru_cell/sub/x"
input: "update_GRUpriorZ/rnn/while/gru_cell/split:1"
attr {
  key: "T"
  value {
    type: DT_FLOAT
  }
}
, name: "update_GRUpriorZ/rnn/while/gru_cell/mul_2"
op: "Mul"
input: "update_GRUpriorZ/rnn/while/gru_cell/sub"
input: "update_GRUpriorZ/rnn/while/gru_cell/Tanh"
attr {
  key: "T"
  value {
    type: DT_FLOAT
  }
}
, name: "update_GRUpriorZ/rnn/while/gru_cell/add"
op: "Add"
input: "update_GRUpriorZ/rnn/while/gru_cell/mul_1"
input: "update_GRUpriorZ/rnn/while/gru_cell/mul_2"
attr {
  key: "T"
  value {
    type: DT_FLOAT
  }
}
, name: "update_GRUpriorZ/rnn/while/TensorArrayWrite/TensorArrayWriteV3/Enter"
op: "Enter"
input: "update_GRUpriorZ/rnn/TensorArray"
attr {
  key: "T"
  value {
    type: DT_RESOURCE
  }
}
attr {
  key: "_class"
  value {
    list {
      s: "loc:@update_GRUpriorZ/rnn/while/gru_cell/add"
    }
  }
}
attr {
  key: "frame_name"
  value {
    s: "update_GRUpriorZ/rnn/while/while_context"
  }
}
attr {
  key: "is_constant"
  value {
    b: true
  }
}
attr {
  key: "parallel_iterations"
  value {
    i: 32
  }
}
, name: "update_GRUpriorZ/rnn/while/TensorArrayWrite/TensorArrayWriteV3"
op: "TensorArrayWriteV3"
input: "update_GRUpriorZ/rnn/while/TensorArrayWrite/TensorArrayWriteV3/Enter"
input: "update_GRUpriorZ/rnn/while/Identity_1"
input: "update_GRUpriorZ/rnn/while/gru_cell/add"
input: "update_GRUpriorZ/rnn/while/Identity_2"
attr {
  key: "T"
  value {
    type: DT_FLOAT
  }
}
attr {
  key: "_class"
  value {
    list {
      s: "loc:@update_GRUpriorZ/rnn/while/gru_cell/add"
    }
  }
}
, name: "update_GRUpriorZ/rnn/while/add_1/y"
op: "Const"
input: "^update_GRUpriorZ/rnn/while/Identity"
attr {
  key: "dtype"
  value {
    type: DT_INT32
  }
}
attr {
  key: "value"
  value {
    tensor {
      dtype: DT_INT32
      tensor_shape {
      }
      int_val: 1
    }
  }
}
, name: "update_GRUpriorZ/rnn/while/add_1"
op: "Add"
input: "update_GRUpriorZ/rnn/while/Identity_1"
input: "update_GRUpriorZ/rnn/while/add_1/y"
attr {
  key: "T"
  value {
    type: DT_INT32
  }
}
, name: "update_GRUpriorZ/rnn/while/NextIteration"
op: "NextIteration"
input: "update_GRUpriorZ/rnn/while/add"
attr {
  key: "T"
  value {
    type: DT_INT32
  }
}
, name: "update_GRUpriorZ/rnn/while/NextIteration_1"
op: "NextIteration"
input: "update_GRUpriorZ/rnn/while/add_1"
attr {
  key: "T"
  value {
    type: DT_INT32
  }
}
, name: "update_GRUpriorZ/rnn/while/NextIteration_2"
op: "NextIteration"
input: "update_GRUpriorZ/rnn/while/TensorArrayWrite/TensorArrayWriteV3"
attr {
  key: "T"
  value {
    type: DT_FLOAT
  }
}
, name: "update_GRUpriorZ/rnn/while/NextIteration_3"
op: "NextIteration"
input: "update_GRUpriorZ/rnn/while/gru_cell/add"
attr {
  key: "T"
  value {
    type: DT_FLOAT
  }
}
, name: "update_GRUpriorZ/rnn/while/Exit"
op: "Exit"
input: "update_GRUpriorZ/rnn/while/Switch"
attr {
  key: "T"
  value {
    type: DT_INT32
  }
}
, name: "update_GRUpriorZ/rnn/while/Exit_1"
op: "Exit"
input: "update_GRUpriorZ/rnn/while/Switch_1"
attr {
  key: "T"
  value {
    type: DT_INT32
  }
}
, name: "update_GRUpriorZ/rnn/while/Exit_2"
op: "Exit"
input: "update_GRUpriorZ/rnn/while/Switch_2"
attr {
  key: "T"
  value {
    type: DT_FLOAT
  }
}
, name: "update_GRUpriorZ/rnn/while/Exit_3"
op: "Exit"
input: "update_GRUpriorZ/rnn/while/Switch_3"
attr {
  key: "T"
  value {
    type: DT_FLOAT
  }
}
, name: "update_GRUpriorZ/rnn/TensorArrayStack/TensorArraySizeV3"
op: "TensorArraySizeV3"
input: "update_GRUpriorZ/rnn/TensorArray"
input: "update_GRUpriorZ/rnn/while/Exit_2"
attr {
  key: "_class"
  value {
    list {
      s: "loc:@update_GRUpriorZ/rnn/TensorArray"
    }
  }
}
, name: "update_GRUpriorZ/rnn/TensorArrayStack/range/start"
op: "Const"
attr {
  key: "_class"
  value {
    list {
      s: "loc:@update_GRUpriorZ/rnn/TensorArray"
    }
  }
}
attr {
  key: "dtype"
  value {
    type: DT_INT32
  }
}
attr {
  key: "value"
  value {
    tensor {
      dtype: DT_INT32
      tensor_shape {
      }
      int_val: 0
    }
  }
}
, name: "update_GRUpriorZ/rnn/TensorArrayStack/range/delta"
op: "Const"
attr {
  key: "_class"
  value {
    list {
      s: "loc:@update_GRUpriorZ/rnn/TensorArray"
    }
  }
}
attr {
  key: "dtype"
  value {
    type: DT_INT32
  }
}
attr {
  key: "value"
  value {
    tensor {
      dtype: DT_INT32
      tensor_shape {
      }
      int_val: 1
    }
  }
}
, name: "update_GRUpriorZ/rnn/TensorArrayStack/range"
op: "Range"
input: "update_GRUpriorZ/rnn/TensorArrayStack/range/start"
input: "update_GRUpriorZ/rnn/TensorArrayStack/TensorArraySizeV3"
input: "update_GRUpriorZ/rnn/TensorArrayStack/range/delta"
attr {
  key: "Tidx"
  value {
    type: DT_INT32
  }
}
attr {
  key: "_class"
  value {
    list {
      s: "loc:@update_GRUpriorZ/rnn/TensorArray"
    }
  }
}
, name: "update_GRUpriorZ/rnn/TensorArrayStack/TensorArrayGatherV3"
op: "TensorArrayGatherV3"
input: "update_GRUpriorZ/rnn/TensorArray"
input: "update_GRUpriorZ/rnn/TensorArrayStack/range"
input: "update_GRUpriorZ/rnn/while/Exit_2"
attr {
  key: "_class"
  value {
    list {
      s: "loc:@update_GRUpriorZ/rnn/TensorArray"
    }
  }
}
attr {
  key: "dtype"
  value {
    type: DT_FLOAT
  }
}
attr {
  key: "element_shape"
  value {
    shape {
      dim {
        size: 180
      }
      dim {
        size: 50
      }
    }
  }
}
, name: "update_GRUpriorZ/rnn/Const_2"
op: "Const"
attr {
  key: "dtype"
  value {
    type: DT_INT32
  }
}
attr {
  key: "value"
  value {
    tensor {
      dtype: DT_INT32
      tensor_shape {
        dim {
          size: 2
        }
      }
      tensor_content: "\001\000\000\000\264\000\000\000"
    }
  }
}
, name: "update_GRUpriorZ/rnn/Const_3"
op: "Const"
attr {
  key: "dtype"
  value {
    type: DT_INT32
  }
}
attr {
  key: "value"
  value {
    tensor {
      dtype: DT_INT32
      tensor_shape {
        dim {
          size: 1
        }
      }
      int_val: 50
    }
  }
}
, name: "update_GRUpriorZ/rnn/Rank_1"
op: "Const"
attr {
  key: "dtype"
  value {
    type: DT_INT32
  }
}
attr {
  key: "value"
  value {
    tensor {
      dtype: DT_INT32
      tensor_shape {
      }
      int_val: 3
    }
  }
}
, name: "update_GRUpriorZ/rnn/range_1/start"
op: "Const"
attr {
  key: "dtype"
  value {
    type: DT_INT32
  }
}
attr {
  key: "value"
  value {
    tensor {
      dtype: DT_INT32
      tensor_shape {
      }
      int_val: 2
    }
  }
}
, name: "update_GRUpriorZ/rnn/range_1/delta"
op: "Const"
attr {
  key: "dtype"
  value {
    type: DT_INT32
  }
}
attr {
  key: "value"
  value {
    tensor {
      dtype: DT_INT32
      tensor_shape {
      }
      int_val: 1
    }
  }
}
, name: "update_GRUpriorZ/rnn/range_1"
op: "Range"
input: "update_GRUpriorZ/rnn/range_1/start"
input: "update_GRUpriorZ/rnn/Rank_1"
input: "update_GRUpriorZ/rnn/range_1/delta"
attr {
  key: "Tidx"
  value {
    type: DT_INT32
  }
}
, name: "update_GRUpriorZ/rnn/concat_2/values_0"
op: "Const"
attr {
  key: "dtype"
  value {
    type: DT_INT32
  }
}
attr {
  key: "value"
  value {
    tensor {
      dtype: DT_INT32
      tensor_shape {
        dim {
          size: 2
        }
      }
      tensor_content: "\001\000\000\000\000\000\000\000"
    }
  }
}
, name: "update_GRUpriorZ/rnn/concat_2/axis"
op: "Const"
attr {
  key: "dtype"
  value {
    type: DT_INT32
  }
}
attr {
  key: "value"
  value {
    tensor {
      dtype: DT_INT32
      tensor_shape {
      }
      int_val: 0
    }
  }
}
, name: "update_GRUpriorZ/rnn/concat_2"
op: "ConcatV2"
input: "update_GRUpriorZ/rnn/concat_2/values_0"
input: "update_GRUpriorZ/rnn/range_1"
input: "update_GRUpriorZ/rnn/concat_2/axis"
attr {
  key: "N"
  value {
    i: 2
  }
}
attr {
  key: "T"
  value {
    type: DT_INT32
  }
}
attr {
  key: "Tidx"
  value {
    type: DT_INT32
  }
}
, name: "update_GRUpriorZ/rnn/transpose_1"
op: "Transpose"
input: "update_GRUpriorZ/rnn/TensorArrayStack/TensorArrayGatherV3"
input: "update_GRUpriorZ/rnn/concat_2"
attr {
  key: "T"
  value {
    type: DT_FLOAT
  }
}
attr {
  key: "Tperm"
  value {
    type: DT_INT32
  }
}
, name: "update_GRUpriorZ/Reshape_2/shape"
op: "Const"
attr {
  key: "dtype"
  value {
    type: DT_INT32
  }
}
attr {
  key: "value"
  value {
    tensor {
      dtype: DT_INT32
      tensor_shape {
        dim {
          size: 3
        }
      }
      tensor_content: "\024\000\000\000\t\000\000\0002\000\000\000"
    }
  }
}
, name: "update_GRUpriorZ/Reshape_2"
op: "Reshape"
input: "update_GRUpriorZ/rnn/while/Exit_3"
input: "update_GRUpriorZ/Reshape_2/shape"
attr {
  key: "T"
  value {
    type: DT_FLOAT
  }
}
attr {
  key: "Tshape"
  value {
    type: DT_INT32
  }
}
, name: "update_GRUpriorZ/Mul"
op: "Mul"
input: "update_GRUpriorZ/Reshape_2"
input: "Placeholder_1"
attr {
  key: "T"
  value {
    type: DT_FLOAT
  }
}
, name: "Reshape_6/shape"
op: "Const"
attr {
  key: "dtype"
  value {
    type: DT_INT32
  }
}
attr {
  key: "value"
  value {
    tensor {
      dtype: DT_INT32
      tensor_shape {
        dim {
          size: 3
        }
      }
      tensor_content: "\264\000\000\000\302\001\000\0002\000\000\000"
    }
  }
}
, name: "Reshape_6"
op: "Reshape"
input: "edge_nnpriorZ/Reshape_1"
input: "Reshape_6/shape"
attr {
  key: "T"
  value {
    type: DT_FLOAT
  }
}
attr {
  key: "Tshape"
  value {
    type: DT_INT32
  }
}
, name: "Reshape_7/shape"
op: "Const"
attr {
  key: "dtype"
  value {
    type: DT_INT32
  }
}
attr {
  key: "value"
  value {
    tensor {
      dtype: DT_INT32
      tensor_shape {
        dim {
          size: 3
        }
      }
      tensor_content: "\264\000\000\0002\000\000\000\001\000\000\000"
    }
  }
}
, name: "Reshape_7"
op: "Reshape"
input: "update_GRUpriorZ/Mul"
input: "Reshape_7/shape"
attr {
  key: "T"
  value {
    type: DT_FLOAT
  }
}
attr {
  key: "Tshape"
  value {
    type: DT_INT32
  }
}
, name: "MatMul_1"
op: "BatchMatMul"
input: "Reshape_6"
input: "Reshape_7"
attr {
  key: "T"
  value {
    type: DT_FLOAT
  }
}
attr {
  key: "adj_x"
  value {
    b: false
  }
}
attr {
  key: "adj_y"
  value {
    b: false
  }
}
, name: "Reshape_8/shape"
op: "Const"
attr {
  key: "dtype"
  value {
    type: DT_INT32
  }
}
attr {
  key: "value"
  value {
    tensor {
      dtype: DT_INT32
      tensor_shape {
        dim {
          size: 4
        }
      }
      tensor_content: "\024\000\000\000\t\000\000\000\t\000\000\0002\000\000\000"
    }
  }
}
, name: "Reshape_8"
op: "Reshape"
input: "MatMul_1"
input: "Reshape_8/shape"
attr {
  key: "T"
  value {
    type: DT_FLOAT
  }
}
attr {
  key: "Tshape"
  value {
    type: DT_INT32
  }
}
, name: "transpose_2/perm"
op: "Const"
attr {
  key: "dtype"
  value {
    type: DT_INT32
  }
}
attr {
  key: "value"
  value {
    tensor {
      dtype: DT_INT32
      tensor_shape {
        dim {
          size: 4
        }
      }
      tensor_content: "\000\000\000\000\002\000\000\000\003\000\000\000\001\000\000\000"
    }
  }
}
, name: "transpose_2"
op: "Transpose"
input: "Reshape_8"
input: "transpose_2/perm"
attr {
  key: "T"
  value {
    type: DT_FLOAT
  }
}
attr {
  key: "Tperm"
  value {
    type: DT_INT32
  }
}
, name: "Mean_1/reduction_indices"
op: "Const"
attr {
  key: "dtype"
  value {
    type: DT_INT32
  }
}
attr {
  key: "value"
  value {
    tensor {
      dtype: DT_INT32
      tensor_shape {
      }
      int_val: 3
    }
  }
}
, name: "Mean_1"
op: "Mean"
input: "transpose_2"
input: "Mean_1/reduction_indices"
attr {
  key: "T"
  value {
    type: DT_FLOAT
  }
}
attr {
  key: "Tidx"
  value {
    type: DT_INT32
  }
}
attr {
  key: "keep_dims"
  value {
    b: false
  }
}
, name: "truediv_1/y"
op: "Const"
attr {
  key: "dtype"
  value {
    type: DT_FLOAT
  }
}
attr {
  key: "value"
  value {
    tensor {
      dtype: DT_FLOAT
      tensor_shape {
      }
      float_val: 9.0
    }
  }
}
, name: "truediv_1"
op: "RealDiv"
input: "Mean_1"
input: "truediv_1/y"
attr {
  key: "T"
  value {
    type: DT_FLOAT
  }
}
, name: "update_GRUpriorZ_1/Reshape/shape"
op: "Const"
attr {
  key: "dtype"
  value {
    type: DT_INT32
  }
}
attr {
  key: "value"
  value {
    tensor {
      dtype: DT_INT32
      tensor_shape {
        dim {
          size: 3
        }
      }
      tensor_content: "\264\000\000\000\001\000\000\0002\000\000\000"
    }
  }
}
, name: "update_GRUpriorZ_1/Reshape"
op: "Reshape"
input: "truediv_1"
input: "update_GRUpriorZ_1/Reshape/shape"
attr {
  key: "T"
  value {
    type: DT_FLOAT
  }
}
attr {
  key: "Tshape"
  value {
    type: DT_INT32
  }
}
, name: "update_GRUpriorZ_1/Reshape_1/shape"
op: "Const"
attr {
  key: "dtype"
  value {
    type: DT_INT32
  }
}
attr {
  key: "value"
  value {
    tensor {
      dtype: DT_INT32
      tensor_shape {
        dim {
          size: 2
        }
      }
      tensor_content: "\264\000\000\0002\000\000\000"
    }
  }
}
, name: "update_GRUpriorZ_1/Reshape_1"
op: "Reshape"
input: "update_GRUpriorZ/Mul"
input: "update_GRUpriorZ_1/Reshape_1/shape"
attr {
  key: "T"
  value {
    type: DT_FLOAT
  }
}
attr {
  key: "Tshape"
  value {
    type: DT_INT32
  }
}
, name: "update_GRUpriorZ_1/rnn/Rank"
op: "Const"
attr {
  key: "dtype"
  value {
    type: DT_INT32
  }
}
attr {
  key: "value"
  value {
    tensor {
      dtype: DT_INT32
      tensor_shape {
      }
      int_val: 3
    }
  }
}
, name: "update_GRUpriorZ_1/rnn/range/start"
op: "Const"
attr {
  key: "dtype"
  value {
    type: DT_INT32
  }
}
attr {
  key: "value"
  value {
    tensor {
      dtype: DT_INT32
      tensor_shape {
      }
      int_val: 2
    }
  }
}
, name: "update_GRUpriorZ_1/rnn/range/delta"
op: "Const"
attr {
  key: "dtype"
  value {
    type: DT_INT32
  }
}
attr {
  key: "value"
  value {
    tensor {
      dtype: DT_INT32
      tensor_shape {
      }
      int_val: 1
    }
  }
}
, name: "update_GRUpriorZ_1/rnn/range"
op: "Range"
input: "update_GRUpriorZ_1/rnn/range/start"
input: "update_GRUpriorZ_1/rnn/Rank"
input: "update_GRUpriorZ_1/rnn/range/delta"
attr {
  key: "Tidx"
  value {
    type: DT_INT32
  }
}
, name: "update_GRUpriorZ_1/rnn/concat/values_0"
op: "Const"
attr {
  key: "dtype"
  value {
    type: DT_INT32
  }
}
attr {
  key: "value"
  value {
    tensor {
      dtype: DT_INT32
      tensor_shape {
        dim {
          size: 2
        }
      }
      tensor_content: "\001\000\000\000\000\000\000\000"
    }
  }
}
, name: "update_GRUpriorZ_1/rnn/concat/axis"
op: "Const"
attr {
  key: "dtype"
  value {
    type: DT_INT32
  }
}
attr {
  key: "value"
  value {
    tensor {
      dtype: DT_INT32
      tensor_shape {
      }
      int_val: 0
    }
  }
}
, name: "update_GRUpriorZ_1/rnn/concat"
op: "ConcatV2"
input: "update_GRUpriorZ_1/rnn/concat/values_0"
input: "update_GRUpriorZ_1/rnn/range"
input: "update_GRUpriorZ_1/rnn/concat/axis"
attr {
  key: "N"
  value {
    i: 2
  }
}
attr {
  key: "T"
  value {
    type: DT_INT32
  }
}
attr {
  key: "Tidx"
  value {
    type: DT_INT32
  }
}
, name: "update_GRUpriorZ_1/rnn/transpose"
op: "Transpose"
input: "update_GRUpriorZ_1/Reshape"
input: "update_GRUpriorZ_1/rnn/concat"
attr {
  key: "T"
  value {
    type: DT_FLOAT
  }
}
attr {
  key: "Tperm"
  value {
    type: DT_INT32
  }
}
, name: "update_GRUpriorZ_1/rnn/Shape"
op: "Const"
attr {
  key: "dtype"
  value {
    type: DT_INT32
  }
}
attr {
  key: "value"
  value {
    tensor {
      dtype: DT_INT32
      tensor_shape {
        dim {
          size: 3
        }
      }
      tensor_content: "\001\000\000\000\264\000\000\0002\000\000\000"
    }
  }
}
, name: "update_GRUpriorZ_1/rnn/strided_slice/stack"
op: "Const"
attr {
  key: "dtype"
  value {
    type: DT_INT32
  }
}
attr {
  key: "value"
  value {
    tensor {
      dtype: DT_INT32
      tensor_shape {
        dim {
          size: 1
        }
      }
      int_val: 0
    }
  }
}
, name: "update_GRUpriorZ_1/rnn/strided_slice/stack_1"
op: "Const"
attr {
  key: "dtype"
  value {
    type: DT_INT32
  }
}
attr {
  key: "value"
  value {
    tensor {
      dtype: DT_INT32
      tensor_shape {
        dim {
          size: 1
        }
      }
      int_val: 1
    }
  }
}
, name: "update_GRUpriorZ_1/rnn/strided_slice/stack_2"
op: "Const"
attr {
  key: "dtype"
  value {
    type: DT_INT32
  }
}
attr {
  key: "value"
  value {
    tensor {
      dtype: DT_INT32
      tensor_shape {
        dim {
          size: 1
        }
      }
      int_val: 1
    }
  }
}
, name: "update_GRUpriorZ_1/rnn/strided_slice"
op: "StridedSlice"
input: "update_GRUpriorZ_1/rnn/Shape"
input: "update_GRUpriorZ_1/rnn/strided_slice/stack"
input: "update_GRUpriorZ_1/rnn/strided_slice/stack_1"
input: "update_GRUpriorZ_1/rnn/strided_slice/stack_2"
attr {
  key: "Index"
  value {
    type: DT_INT32
  }
}
attr {
  key: "T"
  value {
    type: DT_INT32
  }
}
attr {
  key: "begin_mask"
  value {
    i: 0
  }
}
attr {
  key: "ellipsis_mask"
  value {
    i: 0
  }
}
attr {
  key: "end_mask"
  value {
    i: 0
  }
}
attr {
  key: "new_axis_mask"
  value {
    i: 0
  }
}
attr {
  key: "shrink_axis_mask"
  value {
    i: 1
  }
}
, name: "update_GRUpriorZ_1/rnn/Const"
op: "Const"
attr {
  key: "dtype"
  value {
    type: DT_INT32
  }
}
attr {
  key: "value"
  value {
    tensor {
      dtype: DT_INT32
      tensor_shape {
        dim {
          size: 1
        }
      }
      int_val: 180
    }
  }
}
, name: "update_GRUpriorZ_1/rnn/Const_1"
op: "Const"
attr {
  key: "dtype"
  value {
    type: DT_INT32
  }
}
attr {
  key: "value"
  value {
    tensor {
      dtype: DT_INT32
      tensor_shape {
        dim {
          size: 1
        }
      }
      int_val: 50
    }
  }
}
, name: "update_GRUpriorZ_1/rnn/concat_1/axis"
op: "Const"
attr {
  key: "dtype"
  value {
    type: DT_INT32
  }
}
attr {
  key: "value"
  value {
    tensor {
      dtype: DT_INT32
      tensor_shape {
      }
      int_val: 0
    }
  }
}
, name: "update_GRUpriorZ_1/rnn/concat_1"
op: "ConcatV2"
input: "update_GRUpriorZ_1/rnn/Const"
input: "update_GRUpriorZ_1/rnn/Const_1"
input: "update_GRUpriorZ_1/rnn/concat_1/axis"
attr {
  key: "N"
  value {
    i: 2
  }
}
attr {
  key: "T"
  value {
    type: DT_INT32
  }
}
attr {
  key: "Tidx"
  value {
    type: DT_INT32
  }
}
, name: "update_GRUpriorZ_1/rnn/zeros/Const"
op: "Const"
attr {
  key: "dtype"
  value {
    type: DT_FLOAT
  }
}
attr {
  key: "value"
  value {
    tensor {
      dtype: DT_FLOAT
      tensor_shape {
      }
      float_val: 0.0
    }
  }
}
, name: "update_GRUpriorZ_1/rnn/zeros"
op: "Fill"
input: "update_GRUpriorZ_1/rnn/concat_1"
input: "update_GRUpriorZ_1/rnn/zeros/Const"
attr {
  key: "T"
  value {
    type: DT_FLOAT
  }
}
attr {
  key: "index_type"
  value {
    type: DT_INT32
  }
}
, name: "update_GRUpriorZ_1/rnn/time"
op: "Const"
attr {
  key: "dtype"
  value {
    type: DT_INT32
  }
}
attr {
  key: "value"
  value {
    tensor {
      dtype: DT_INT32
      tensor_shape {
      }
      int_val: 0
    }
  }
}
, name: "update_GRUpriorZ_1/rnn/TensorArray"
op: "TensorArrayV3"
input: "update_GRUpriorZ_1/rnn/strided_slice"
attr {
  key: "clear_after_read"
  value {
    b: true
  }
}
attr {
  key: "dtype"
  value {
    type: DT_FLOAT
  }
}
attr {
  key: "dynamic_size"
  value {
    b: false
  }
}
attr {
  key: "element_shape"
  value {
    shape {
      dim {
        size: 180
      }
      dim {
        size: 50
      }
    }
  }
}
attr {
  key: "identical_element_shapes"
  value {
    b: true
  }
}
attr {
  key: "tensor_array_name"
  value {
    s: "update_GRUpriorZ_1/rnn/dynamic_rnn/output_0"
  }
}
, name: "update_GRUpriorZ_1/rnn/TensorArray_1"
op: "TensorArrayV3"
input: "update_GRUpriorZ_1/rnn/strided_slice"
attr {
  key: "clear_after_read"
  value {
    b: true
  }
}
attr {
  key: "dtype"
  value {
    type: DT_FLOAT
  }
}
attr {
  key: "dynamic_size"
  value {
    b: false
  }
}
attr {
  key: "element_shape"
  value {
    shape {
      dim {
        size: 180
      }
      dim {
        size: 50
      }
    }
  }
}
attr {
  key: "identical_element_shapes"
  value {
    b: true
  }
}
attr {
  key: "tensor_array_name"
  value {
    s: "update_GRUpriorZ_1/rnn/dynamic_rnn/input_0"
  }
}
, name: "update_GRUpriorZ_1/rnn/TensorArrayUnstack/Shape"
op: "Const"
attr {
  key: "dtype"
  value {
    type: DT_INT32
  }
}
attr {
  key: "value"
  value {
    tensor {
      dtype: DT_INT32
      tensor_shape {
        dim {
          size: 3
        }
      }
      tensor_content: "\001\000\000\000\264\000\000\0002\000\000\000"
    }
  }
}
, name: "update_GRUpriorZ_1/rnn/TensorArrayUnstack/strided_slice/stack"
op: "Const"
attr {
  key: "dtype"
  value {
    type: DT_INT32
  }
}
attr {
  key: "value"
  value {
    tensor {
      dtype: DT_INT32
      tensor_shape {
        dim {
          size: 1
        }
      }
      int_val: 0
    }
  }
}
, name: "update_GRUpriorZ_1/rnn/TensorArrayUnstack/strided_slice/stack_1"
op: "Const"
attr {
  key: "dtype"
  value {
    type: DT_INT32
  }
}
attr {
  key: "value"
  value {
    tensor {
      dtype: DT_INT32
      tensor_shape {
        dim {
          size: 1
        }
      }
      int_val: 1
    }
  }
}
, name: "update_GRUpriorZ_1/rnn/TensorArrayUnstack/strided_slice/stack_2"
op: "Const"
attr {
  key: "dtype"
  value {
    type: DT_INT32
  }
}
attr {
  key: "value"
  value {
    tensor {
      dtype: DT_INT32
      tensor_shape {
        dim {
          size: 1
        }
      }
      int_val: 1
    }
  }
}
, name: "update_GRUpriorZ_1/rnn/TensorArrayUnstack/strided_slice"
op: "StridedSlice"
input: "update_GRUpriorZ_1/rnn/TensorArrayUnstack/Shape"
input: "update_GRUpriorZ_1/rnn/TensorArrayUnstack/strided_slice/stack"
input: "update_GRUpriorZ_1/rnn/TensorArrayUnstack/strided_slice/stack_1"
input: "update_GRUpriorZ_1/rnn/TensorArrayUnstack/strided_slice/stack_2"
attr {
  key: "Index"
  value {
    type: DT_INT32
  }
}
attr {
  key: "T"
  value {
    type: DT_INT32
  }
}
attr {
  key: "begin_mask"
  value {
    i: 0
  }
}
attr {
  key: "ellipsis_mask"
  value {
    i: 0
  }
}
attr {
  key: "end_mask"
  value {
    i: 0
  }
}
attr {
  key: "new_axis_mask"
  value {
    i: 0
  }
}
attr {
  key: "shrink_axis_mask"
  value {
    i: 1
  }
}
, name: "update_GRUpriorZ_1/rnn/TensorArrayUnstack/range/start"
op: "Const"
attr {
  key: "dtype"
  value {
    type: DT_INT32
  }
}
attr {
  key: "value"
  value {
    tensor {
      dtype: DT_INT32
      tensor_shape {
      }
      int_val: 0
    }
  }
}
, name: "update_GRUpriorZ_1/rnn/TensorArrayUnstack/range/delta"
op: "Const"
attr {
  key: "dtype"
  value {
    type: DT_INT32
  }
}
attr {
  key: "value"
  value {
    tensor {
      dtype: DT_INT32
      tensor_shape {
      }
      int_val: 1
    }
  }
}
, name: "update_GRUpriorZ_1/rnn/TensorArrayUnstack/range"
op: "Range"
